:100000008005FE6B8005FF268006FFD38006FFC2B9
:100010008006FFE88006FFD88006FEFF8006FF3FCF
:100020008006FFDB8005FF7A8006FF008005FE5F0B
:100030008006FEC48005FF4C8005FEC88005FF4891
:100040000000FEC30000FF290000FFC10000FE5FAA
:100050000000FE470000FFC50000FE490000FE5FF3
:100060000000FFC90000FEDB0000FE300000FEDBE8
:100070000000FEAD0000FE400000FE26514280A6BA
:100080000000FFA40000FE000000FF220000FEFBB5
:100090000000FFDB0000FF4B0000FEF60000FEA4A6
:1000A0000000FEFE0000FFD60000FF1B0000FEE483
:1000B0000000FE330000FF530000FFDB4B40818354
:1000C0000000FE380000FEEA0000FF890000FFA3E8
:1000D0000000FF310000FF130000FE900000FE3919
:1000E0000000FF910000FE900000FE420000FE199B
:1000F0000000FEB60000FE200000FF245245806391
:100100000000FF2B0000FEDC0000FEE50000FF8485
:100110000000FEF50000FEE70000FE810000FE3159
:100120000000FFA50000FF970000FE640000FF2B09
:100130000000FE470000FEDB0000FE4150448061ED
:100140000000FEF80000FF0F0000FE550000FEBF9B
:100150000000FE000000FF570000FEC70000FEF494
:100160000000FE430000FF770000FE1F0000FFC0FC
:100170000000FE3F0000FE2F0000FF0F50448003F0
:100180000000FE2B0000FEC70000FFCD0000FEB304
:100190000000FEF80000FE6C0000FF340000FF27A6
:1001A0000000FF4F0000FF040000FF5F0000FE277B
:1001B0000000FF270000FFBB0000FEDB5043803B38
:1001C0000000FE330000FEBB0000FF940000FF6A49
:1001D0000000FFC90000FFED0000FEE20000FE335A
:1001E0000000FED60000FEC30000FE090000FEB3C2
:1001F0000000FE1A0000FEC80000FE40514480C806
:100200000000FF070000FECC0000FE100000FF0908
:100210000000FF050000FEA10000FE130000FF8BA0
:100220000000FF3B0000FE430000FE3C0000FF0B0F
:100230000000FE0E0000FE4C0000FFF453488067F3
:100240000000FF370000FE6A0000FF920000FECBB6
:100250000000FF6E0000FF930000FE910000FE9A78
:100260000000FF830000FFC30000FE630000FEB734
:100270000000FEE30000FE490000FF004C44806CDB
:100280000000FE240000FEF80000FF860000FF488A
:100290000000FE6F0000FEE70000FEB70000FEB7A2
:1002A0000000FFA60000FFC70000FE080000FE27B8
:1002B0000000FE000000FEDB0000FE49524280CB41
:1002C0000000FE270000FEE90000FFD40000FFE868
:1002D0000000FF400000FE380000FE8D0000FE8799
:1002E0000000FE8C0000FFA80000FE4F0000FF226F
:1002F0000000FE780000FE5B0000FE585344805270
:100300000000FF360000FEB90000FE9E0000FEF96E
:100310000000FEED0000FFCE0000FE360000FE9261
:100320000000FF260000FE9E0000FE4E0000FF269B
:100330000000FED10000FEDB0000FED94F438049E3
:100340000000FEDB0000FE290000FE790000FE5BDD
:100350000000FF2C0000FF4B0000FE4B0000FF5E82
:100360000000FEFD0000FED90000FEB80000FECB3C
:100370000000FE290000FFD40000FFA6524681368F
:100380000000FEF30000FF330000FE7A0000FE795B
:100390000000FEDF0000FE4A0000FFE80000FF7BD7
:1003A0000000FEFE0000FEFB0000FEBE0000FE7E20
:1003B0000000FFDF0000FF800000FE8D4E43809AAA
:1003C0000000FEF00000FF0B0000FF160000FE29F9
:1003D0000000FE0F0000FE4F0000FE570000FFE887
:1003E0000000FE5E0000FE740000FE1F0000FFD053
:1003F0000000FE2B0000FE0F0000FE075546802F78
:100400000000FF210000FE0D0000FF8C0000FE88B0
:100410000000FE1C0000FE9C0000FFA00000FE2D5E
:100420000000FE2F0000FF240000FE4F0000FF220E
:100430000000FF070000FE390000FEDB5147802866
:10044000811AFC32811A35AD811A5BFB811AAA63CD
:10045000811A7B7C811A4B5B811AB400811A7595D5
:10046000811A2B5E811AE43A811AF4B3811A94A797
:10047000811A3800811AFB37811A417E811AC438EB
:10048000811AD431811A1985811AE022811AF43B2C
:10049000811A59B4811A7BC8811A6921811A1BEF0C
:1004A000811A8A09811A0C82811A6A39811A775C49
:1004B000811A0306811AC230811A1B9D811A8B682A
:1004C000811A9A5E811A825A811AC411811A853062
:1004D0008131740381315F8F8131CBFD8131FD2EFC
:1004E000813171FC81310E408131FC3281317515D1
:1004F0008131A3DC8131AC32813116C381311B459E
:1005000081315C488131B527813171FF8131437878
:10051000813180018131090F813100008131DDA5F8
:10052000813146528131108881317B7781314A6D2A
:100530008131BEC081316BD48131C6B98131FED1E8
:100540008131E77E81319A83813177BF81317BFFB1
:10055000813173CD8131FFFF813196298131EB5398
:100560008132681B8132EFF78132FBFF8132D3F198
:1005700081322E0A813214008132F7ED8132E53E5C
:100580008132559D81329FEA8132CEF2813244011F
:10059000813243D58132843A813270378132D675C7
:1005A0008132D21D81328400813203CD81328EC8E6
:1005B000813295EA8132842A813271B78132C868EA
:1005C0008132EF3F8132529481324AFD8132AFB5A0
:1005D00081323FE781322ACF8132742C8132BC8252
:1005E0008132757981323A3F813243458132AFFFA2
:1005F000811243CD8112840281121424811204904D
:10060000811284828112FC328112C35F81124A6C92
:1006100081127404811291A581128BC8811288C83D
:1006200081124AFF8112D4308112BCA181123BC5D4
:1006300081122BCF8112EB7F81129FCC81123EC1A0
:100640008112AAE281121014811253CF8112E43E6A
:1006500081127FB681124BFD8112BD8E8112F4335F
:100660008112DC398112B4CF811244228112541BD1
:10067000811254A281124C85811223DC81127A9559
:100680008116551C81160AB581161FE981163E4A4E
:100690008116FDBE8116E7F98116AF6A81166032B8
:1006A000811609A9811684E28116842281168400AC
:1006B0008116FF6B8116140581163BCD81162B4FD9
:1006C0008116888381166F54811650C18116D19787
:1006D0008116715781164B7F811667ED8116E23ABC
:1006E0008116E6C4811602C48116E23881169C3157
:1006F0008116DBFD81166BCD811611778116F6AA66
:1007000081162F9D81165E368116173F81169A0D30
:10071000812DF50B812DFDF3812DFFF1812DFFFF43
:10072000812D7BFD812D4BC8812D574D812D6A0F69
:10073000812D0883812D68C2812D209D812D60042B
:10074000812D8B76812D575D812D33CD812D0A4AE8
:10075000812D4296812DC418812D6402812DD7BF31
:10076000812DF57F812DE77A812DEF7C812DE43875
:10077000812DA7E2812D9483812DD4BC812DDC3382
:10078000812D0EFB812D2D2F812DCBD4812DAA08FB
:10079000812D67BC812D5277812DDBEF812D7FED7F
:1007A0008126476B8126FFDF81265BFE8126C0B153
:1007B000812664628126D0108126A5F381266416E5
:1007C000812651148126A5EA81260E52812654885D
:1007D00081264BCD8126E43A812670B78126DB7DC8
:1007E0008126AFFE8126503881260BED8126AEECA6
:1007F000812638508126148A8126651B8126CC608B
:100800008126D837812677FD8126F77C8126ACC0EA
:100810008126BE17812602C58126743A81267FBFB4
:10082000812670F58126EB4F81264A8C8126C97579
:100830008122F432812254B18122DBD18122FB6EEC
:1008400081221B4C81220B4D8122B400812275979D
:1008500081220BFE81226A3A8122F491812235871E
:100860008122F52281222BD78122417E8122C43A26
:100870008122D430812210058122ECE38122D03AFA
:100880008122D13C8122BBCA81226DB381221BF718
:1008900081222E488122840081224B3181225AC834
:1008A000812203FE8122C93181229BD78122A8DCCB
:1008B0008122CA478122C2588122CDDB8122843223
:1008C000813574AB8135BCA881355CD38135F44664
:1008D000813519C58135026A8135B4BB8135BF5573
:1008E00081358D2D81357FAF81353F53813583042F
:1008F0008135F57F81350584813563DF8135EB7E78
:10090000813550188135C402813584008135A57345
:100910008135C4728135843A813596C381359FF71C
:1009200081353FC0813508A98135D8A081352C811A
:10093000813533C48135283F813578A381356B7D7E
:1009400081352BCF8135B27281358B2A81358C6F01
:1009500081241AC1812484028124A4038124F50CFA
:100960008124AF818124C8A5812403968124CADA19
:100970008124C6728124518581242B0E8124A77A7B
:100980008124FC3A8124135D812484288124B513B9
:100990008124070D812412808124A62A81244010FD
:1009A000812400A0812440818124D4B38124199D15
:1009B0008124591D81249F8D8124BF4781241B4D93
:1009C00081242FCF81246FF48124828D812492474A
:1009D000812463FA812400E181242DE78124AB7F07
:1009E0008122ED37812244188122A08181221DAF0E
:1009F00081223361812202098122E43A8122510459
:100A00008122C0958122ADFE8122376F81222A4545
:100A100081221C8981228CE2812211C581224BCF47
:100A200081223ECB81222FC8812217DD81222BCF4C
:100A300081226BDF8122EF5E812261FE81226A4A80
:100A4000812235478122235E8122435D8122014834
:100A5000812226C68122C38C812254068122ACCCFD
:100A60008122B42A8122FB4281224FB781229C211C
:100A700081154B4C811568FB81157E3A8115E8F391
:100A80008115787E8115F4388115B35C811532ADFE
:100A900081153BD981152A58811585CB8115AE402A
:100AA000811580008115F507811569D78115C2F977
:100AB0008115CBC481153BFF811540328115DD2E98
:100AC00081157F558115734C8115082E8115711F75
:100AD0008115A4888115D8218115EC328115801DDE
:100AE0008115CE3A8115BF72811528408115453098
:100AF0008115D9A68115FAD58115C90C81154544F2
:100B0000811AA7F7811A1609811AC288811A400131
:100B1000811AACC2811AFC3B811AD12E811A182489
:100B2000811A9F79811A1305811AE71F811AAF3143
:100B3000811AB1A9811AEDB6811AC432811ADDB2C7
:100B4000811ABF69811AB0A3811ABFD1811A3E5B95
:100B5000811A2EC8811A389B811A1FC6811A09C7AB
:100B6000811A73BF811A0309811A0945811A42C586
:100B7000811ACBFC811AC57A811A1C22811A57FD71
:100B8000811A8822811A6C91811A2D79811A842008
:100B9000811F3BCD811FB64E811F689F811F64B3AB
:100BA000811F4E7A811F54B0811F93BC811F9BCC43
:100BB000811FEA7C811F2218811F099D811F7238C5
:100BC000811F0812811FC77B811FCC32811FB5B1E5
:100BD000811F3F6C811F38AF811FEFBA811F101832
:100BE000811F1880811F3085811F0BC6811F6B47B5
:100BF000811F510C811F1BC1811F23C1811F3BC756
:100C0000811FCF7F811FF43A811F1B42811F9154A6
:100C1000811F60D1811FC1DE811FAE78811F9504C5
:100C2000812E5BED812E4FFE812E7FD6812EF7B770
:100C3000812E13C9812E8BCF812E5095812ECC030E
:100C4000812EDD31812E7FC5812E3B77812E8BEF6A
:100C5000812E50F2812EE90A812EC43A812ED035A0
:100C6000812E60BD812EE027812E37DD812EAF6879
:100C7000812E84A0812E90A0812E94A2812EA4AAE0
:100C8000812E7AFA812E82B0812E8CAE812E1413A1
:100C9000812EAC08812E90ED812E7C0A812E598008
:100CA000812E4BDF812EA246812E2086812ECB57AE
:100CB00081247576812442CA8124CA698124FF6116
:100CC0008124F43A8124D4328124E7FD8124BEFDBD
:100CD00081247FD2812471378124570C81240A8298
:100CE0008124FFFF81243FFF81240BCE8124C46235
:100CF000812494318124110881244BAE8124FF5F2B
:100D0000812483E681240EC981242BC58124ABEB89
:100D10008124377A8124B5AF81245A7281246113EA
:100D2000812443DC8124080F812441658124DE78FD
:100D30008124D4BA8124920B812493118124FE5EF4
:100D4000811EB13F811E5C31811E78B6811E5FD14C
:100D5000811E7B5D811E0BC7811E40A3811E420246
:100D6000811E50B4811EBDC7811E3016811EC12C4C
:100D7000811E0EBA811E8820811EF433811EB9BDEA
:100D8000811E8CE0811EEE40811E051C811E8AA002
:100D9000811E2A4A811EB022811EF53A811ED03260
:100DA000811EEE3B811E503F811EE7FE811E8CB0EE
:100DB000811EBFE3811E2FCF811E4422811E2EA2E1
:100DC000811E3D6D811E62A0811E7BFD811E735FB1
:100DD000811AE533811A7FFD811A5BFD811A6F7ECE
:100DE000811A964C811A86D8811AB46B811A3522E1
:100DF000811A23CD811AAF7E811A94E2811AE8C547
:100E0000811A2FD5811A24AC811A31C7811A6BFA45
:100E1000811AD099811A3FD7811A5B4D811A3D27DB
:100E2000811AFF7F811A9FFB811AFF73811A735FFA
:100E3000811A00A2811AD021811AD4BB811A659F20
:100E4000811A793B811AE03B811A353E811A54BAE6
:100E5000811AD411811A9438811A851B811A143190
:100E60008126F4AA812651E581264B4D81265B6FB0
:100E70008126436E8126803A8126E4308126F13531
:100E800081269D8C8126AE6A8126F4328126503FD0
:100E90008126872A8126108781266BCF81260BFA2F
:100EA00081268EC081268411812617008126F9D5DE
:100EB00081267B5D8126EF7F8126E5E98126AAE2F6
:100EC000812602C4812645CE8126D5FA8126C48199
:100ED0008126779D81261F8E8126013281265DBD68
:100EE000812619BC8126D0938126D5BD8126F33871
:100EF0008134F3FD81347FFF81346A4E81348589EA
:100F00008134020181340BCF8134B6B581343DC7C1
:100F10008134FD558134F7FF8134BF6D81346FFE1C
:100F20008134536F8134688A8134CCBA8134501152
:100F30008134703F81349B4F8134B76D8134FFF62B
:100F40008134B4E88134F4368134F5378134B747DD
:100F500081345B94813401FE81348C4C81340EC722
:100F600081341882813400A1813445228134C11F2B
:100F70008134DBCE8134C006813448278134C9D323
:100F8000813520B28135D4318135F4B281356E3F5F
:100F900081351000813580868135C49D81351BC81F
:100FA000813550138135FF5F8135643881351540B7
:100FB000813524A38135C7778135CC388135940AB2
:100FC00081350F46813500008135E4B08135D098F8
:100FD0008135A0A0813570048135C4BE8135C02023
:100FE0008135B42B81353EC18135AF4D81351FCD63
:100FF00081352F46813504448135928D8135EBD77B
:101000008135E3C58135E3448135E2BC81356DFF2F
:101010008126F42A8126C9D581267FED81263B7D54
:1010200081263B4E812662478126F4688126F5356C
:10103000812631ED8126AD6F8126D43A8126703D1F
:101040008126A57A8126308181263BCD81260BEB36
:1010500081268C6081263400812601068126FBB71B
:1010600081267B5F81269F7E8126A3D8812600F87A
:1010700081268C878126D0168126E6388126CD7878
:101080008126135D81261BC68126AD6D81267D8D4F
:1010900081263DF98126F2728126D52B8126723375
:1010A000812DEFBE812DC482812DB187812D23AF8B
:1010B000812D0BDC812D0343812DF432812D5104D0
:1010C000812DF35D812D1BCE812D7907812D7B3DF7
:1010D000812DA408812D8CE2812D5053812DFFE7B5
:1010E000812D7AFB812DAC38812DB7DF812D2BDE50
:1010F000812DCB75812DBF41812D03CF812D02AA7A
:10110000812D5145812D6B4E812D021D812D29236D
:10111000812D2C4A812D552D812D5486812D2971AB
:10112000812DA429812D7BFD812DBFD7812DFEA688
:10113000811C0BDF811C03F6811CAB6F811C7AF5CF
:10114000811CAB01811C2F1E811C2A32811CE43BB7
:10115000811C771A811C1111811C85FE811CFC7376
:10116000811C42C8811C2AC3811CCC32811CD01432
:10117000811CBFCF811C2BDF811C5015811C0BCD26
:10118000811C2FCC811C7BC4811C4145811C4206E3
:10119000811CB033811C725F811C2346811C028E2E
:1011A000811C5800811C8EC0811CFC20811C54BAFB
:1011B000811CB374811C2D7E811C5030811C8120C8
:1011C000812E4BDB812EED9F812EFF7E812E5FE1F4
:1011D000812EEE6A812ED430812ECBF5812EE63E13
:1011E000812E7515812EBBEE812EC6FE812EC6C8BE
:1011F000812E43DD812E8432812E75B7812EDE7DD6
:10120000812E93BD812EA4A8812E0B4C812EAEC8B9
:10121000812E2FDA812E0432812EF4B7812E88BAE6
:10122000812EBC3F812E73FD812EF3FD812EAFFDFB
:10123000812EBFDD812E2BC7812E642A812E7CB3A7
:10124000812E743B812E331D812EC375812E7BEF41
:1012500081110AC18111A002811140168111E48D12
:10126000811196C08111389281111B9581112FDA5D
:101270008111F60A81111000811159A581117F3B5E
:101280008111559D8111AFFE8111CC3281119425C0
:1012900081113F4E811180BE8111AFFF811108087D
:1012A00081110080811130858111008D8111AB5534
:1012B0008111501D81113FFE8111A349811173C716
:1012C0008111EC0E81117570811192C98111C825AF
:1012D0008111D0DA81114576811154388111CFC046
:1012E000811D431D811D6FDD811D7BFE811DC4B9E4
:1012F000811D4470811D9010811DE465811DE01CDD
:10130000811D4135811D87EA811D2E60811D500997
:10131000811D5F4D811DC422811D70BF811DDB7F3A
:10132000811DFF7C811D5438811D0BC5811D8EECF4
:10133000811D7C58811D548A811D751D811DCCE243
:10134000811D409C811DB1D7811DF779811D84804D
:10135000811DD232811D42C5811D542E811D7FBE4B
:10136000811D72D5811DCB4A811DD80A811DC1D135
:101370008117DEC881179AC28117944981172862A4
:101380008117ECBE8117F43A81178FDE8117B5ED16
:1013900081173FDC8117E0368117CD288117328213
:1013A0008117FF6F81173BD581170BCD81178E6297
:1013B0008117110381171285811798AA8117731756
:1013C0008117435D81174FCD81174BC58117ABC383
:1013D00081173B4F8117D5C78117DE7081177513B1
:1013E000811743DD81176A9381178BF58117C78DAC
:1013F000811700BA81171C1881179511811714786D
:10140000812213C58122A3EC81227E3F8122FC3FF1
:101410008122FF3C8122AC1E81221BCD8122AFFDA7
:101420008122EE488122A00A812260A081220482CA
:1014300081226A7281227B1F8122EC3A8122F43060
:101440008122519081220AE58122CC288122F4B3A5
:10145000812284A2812290A181225F568122113FA4
:10146000812282E88122DE858122AEC681227293AA
:101470008122E5AD81229EF18122ABDD8122C07007
:101480008122D38E81221C9D8122E23881229154B7
:10149000812DB6E7812DB27C812D0B87812DD9FD61
:1014A000812D7EF9812DB807812D618D812D0BC293
:1014B000812D0202812D788D812D3FDF812D030C3E
:1014C000812D3737812D4F7F812D8E20812DB517AE
:1014D000812DFF7F812DE0B9812DBDBF812D304B46
:1014E000812D1088812D2814812D808E812D6BC334
:1014F000812DF5B5812DB7E5812D3B45812D6B4CB7
:10150000812D2AC0812DE438812DF387812D6B57E1
:10151000812D2A73812D412A812D308B812D2FEE33
:101520008134B47B8134FE398134BE418134E4F3AB
:10153000813474B98134DDB7813471BD81340BE7F6
:101540008134E23B813438AD81347BDF81340B5C04
:101550008134FD378134EFFE8134CE288134B58764
:101560008134FF7E8134F03A8134A5AA813412435C
:1015700081340EC88134780581349EAC81349FC19A
:1015800081347191813490A181342B4D81340B4C85
:1015900081340AC28134C0388134B38781346B5DB1
:1015A0008134CBE78134414A813402A981342FCE82
:1015B00081291BC581292E4C8129F8BB8129743EC4
:1015C0008129767C8129943081295BDE81299BC524
:1015D0008129CE5C8129E43A8129410C8129008846
:1015E0008129E8328129C7378129CC3A8129B4B3CE
:1015F000812957C0812911C5812944208129C4B17D
:10160000812914808129318581295BA681293BD7D5
:1016100081298B4981291F85812937CD81293BCF9C
:101620008129AF5F8129447E81298A528129C1178E
:101630008129F1D58129C37E8129663881299400C9
:10164000811DE426811D56F8811DB97D811D1E2254
:10165000811D1408811D1481811D3C09811D531EAB
:10166000811D2BCD811DA77E811D94E9811D78955B
:10167000811D15D3811DECAE811D5BD5811D4BCA2B
:10168000811DBFA3811DAFEF811D5BD5811D7FBF74
:10169000811DFF7F811DAF7F811D7615811D0A4E43
:1016A000811D6403811D237F811D6347811D4B4E76
:1016B000811D4000811D902A811D0D77811D5DF0E7
:1016C000811DD4C2811DC43A811D8010811D90806E
:1016D000810E07CD810EF383810E03E5810E8248D2
:1016E000810E8008810E9083810EA442810EC42059
:1016F000810E8432810E1401810E0402810EC0001D
:10170000810EADEB810E0000810E00C1810E8F4075
:10171000810E9440810EC40A810EA7C4810ED2525C
:10172000810E4137810E0F49810E0AC0810E0F6470
:10173000810E487A810E088C810E16BB810E25041D
:10174000810E924E810ED5BA810E1A8B810E8AEFD0
:10175000810EC001810E825F810E88E8810EA9C4CE
:10176000811E5000811E8081811E6290811E09D8D9
:10177000811E1291811E0880811E5081811E6BDDA9
:10178000811EEED2811E7C2B811E7A37811E912D07
:10179000811E3A74811E6BDF811E8E22811EF5BF71
:1017A000811E3FFD811E80A0811EAC19811E72D357
:1017B000811E8420811E7001811E1BCD811E6BC580
:1017C000811EBB45811E4C72811EC0CC811EF2530E
:1017D000811E1913811EC13C811EBA8D811EAAA5CE
:1017E000811EB433811E3358811E2CF2811ED428F1
:1017F00081185D008118198F81180E4981188C425B
:101800008118F5978118FE71811808C28118E9774F
:101810008118CA348118952C8118B6C58118A67C08
:101820008118EF7F811834FD81180BCD81180B4092
:101830008118908181183B4B8118B7EF81187BC5C7
:101840008118635F81180B4C811800438118FE706A
:1018500081181B7F811841568118836581182F8D4F
:1018600081181BDD8118EF3A81184B058118E0982B
:101870008118351981181FB481181D738118BE7C19
:101880008107F42381079898810704298107128131
:101890008107A94681077039810788008107C1B790
:1018A0008107CE3A810784208107D4398107F6BAAF
:1018B0008107198981079005810701CD8107AFE371
:1018C0008107AE42810794008107A37581074252C8
:1018D0008107511581075BCD81072BCD8107EEC1B3
:1018E000810708128107B4888107B23381077247E4
:1018F00081075B5D81076BFE8107F04F81077FBD2C
:101900008107A8C48107973E81071438810781C4E5
:101910008119BD2581199C0A8119FD8181193FC05A
:101920008119B5CB8119F63A811940418119A02658
:101930008119EB778119E77D8119FF5E81198E3C52
:1019400081197FCD8119E8B2811961FF8119C3FF27
:101950008119C4E181197E3181198BE581191FCC70
:101960008119E45A8119D4388119950B811950A035
:101970008119BD3F811903408119AC6A8119F4B8FE
:101980008119D8118119C2108119343B811917D6D8
:10199000811928E88119B29281199402811905A050
:1019A000812FF43E812FD4B1812F158B812F3FCF12
:1019B000812FFFE6812F0343812FA4BB812F1621A6
:1019C000812FEF45812FFDBF812FB75E812F841CB2
:1019D000812FF557812FF937812F33CD812F6F5A02
:1019E000812F803A812FD420812F09C0812FED369D
:1019F000812FC73A812F8C68812F96A1812F1DC31B
:101A0000812F3FFB812F8CEA812FCCB8812F0CB125
:101A1000812F7347812F3B8F812F55A5812F2BFC61
:101A2000812F0AC3812F9640812F9721812F593F03
:101A30008127F43A812754B08127CDD38127BB2E4B
:101A400081271BCC812783408127B4A081277D97E4
:101A500081278BCF81276A7B8127749F8127318FD4
:101A600081277C00812769F78127787F8127E67AA3
:101A70008127F4A881270400812760A28127D43A16
:101A80008127C03081279AC981276F8281273FC370
:101A90008127274881278C8281270E3181270242A6
:101AA0008127C37D8127ED3581279BF581278AD842
:101AB00081278BC58127AAC98127CFCF8127B43A37
:101AC00081325003813269958132DBE781323BFDFF
:101AD00081323E6A813210008132FEF78132FF3E50
:101AE0008132113D8132B3CF8132C672813250854D
:101AF0008132AF7F8132843A8132109581324B4DF1
:101B00008132820C8132A5008132F7A78132BEC8B2
:101B100081327B5381328F7A8132C4F28132ECA3DD
:101B20008132B43B813273FF8132537F813267FE51
:101B300081321FC781323A878132640D8132BFF60C
:101B4000813275108132B3178132D3A78132EE6DA5
:101B500081265AC2812647FA8126FEF28126F4BFE9
:101B600081265F748126BBCE81260B9C812639F9A4
:101B700081263BDB8126CA52812621A1812601468E
:101B8000812643C48126EF778126F43E8126509C2E
:101B9000812643CC812600C481265B9581262EEACE
:101BA0008126A4A28126F430812654358126A7BD42
:101BB0008126B4338126A4328126CCB88126B42371
:101BC000812694A181261043812672B38126CAF012
:101BD00081261E8F8126AAC78126622581268391B0
:101BE0000109ECD50109CBF00109C2000109E4109B
:101BF0000109F490010990800109E030010950A029
:101C00000109C0400109C000010944800109D00553
:101C10000109E4AA010974870109628D01096BC4F5
:101C200001094EC00109C4A00109C4200109F091B5
:101C30000109E15701098BDD0109BBDD0109CF6A0B
:101C40000109E4220109D41A01094426010960139B
:101C500001097C0D01097BFB0109642001099CC07D
:101C600001098081010940130109741D01093BFF2D
:101C7000811BABFF811B12C8811BA3CE811B4000BF
:101C8000811B85C7811BFEFC811BFF7C811B100310
:101C9000811BFF79811B176C811BA622811BED39EB
:101CA000811B5480811BE8A2811BFC32811BDD3427
:101CB000811BBDE9811BADF3811BB1F1811B180DA7
:101CC000811B1E88811B3885811B27CF811B2B47D9
:101CD000811B5A7B811B7B39811B2747811B02415A
:101CE000811BF02B811BDFFB811B2C20811B55BB33
:101CF000811B9B4A811BAC9D811B6CB2811B8300A5
:101D00008121A53F8121FC7E812135AD812100A962
:101D100081212C338121FD7E8121A67A8121400001
:101D2000812170958121BBDD8121BF6D8121EF78FB
:101D3000812100808121CCE081217BC581212B4D37
:101D40008121B9B78121EFFF8121193081213FDD48
:101D500081217FFF8121CF7E8121F0008121E43E1E
:101D60008121AF7E81214150812119BA81218C24AA
:101D70008121FCF181211887812144228121B488AD
:101D8000812128858121E0898121EBD58121EFFF07
:101D9000811184B4811154A18111396781112B6F94
:101DA00081113B7C81110B448111308381117D179E
:101DB00081113B5F81113F4E81111B2A8111955A80
:101DC0008111EC328111748581110BDD81112BD9C8
:101DD00081112A4E81118C208111FC2A81115B977F
:101DE00081117B7F81115B5E81112FFD81116B1150
:101DF0008111AC22811174B28111E4108111F84972
:101E00008111D827811140248111EC2081115510B6
:101E100081115410811184908111C4008111101816
:101E2000811B4384811BEA42811B8725811B20FB88
:101E3000811BC476811B9438811B5055811B03DEA6
:101E4000811BFBDE811BACFA811BDFF8811B168135
:101E5000811B0000811BF9B7811B43FF811B8BF1A4
:101E6000811B5FC0811B7DBD811BE1B2811BCE7ECA
:101E7000811B551D811BF7FA811B101F811B07C594
:101E8000811B1385811BABC1811BA763811B1401BF
:101E9000811B0000811BC030811B011D811BF1CE05
:101EA000811B4BDC811B4F72811BC428811B940852
:101EB000811F0341811F16E0811F4030811FD49292
:101EC000811FD8B3811F7FAE811F63EC811F2BDB85
:101ED000811FF412811F7284811F13C9811FAA4EB2
:101EE000811F7AE1811FEB7A811FC43A811FF43090
:101EF000811F719D811F3BDE811FE8FA811F8408CD
:101F0000811F8480811F1080811F1083811F937423
:101F1000811F9BBF811F88A1811F2984811F12C738
:101F2000811FEAF8811FC4B2811FBA49811F92E163
:101F3000811FC241811F0A09811F5F8C811FFABC6A
:101F4000812DA273812D567A812DD650812DF65286
:101F5000812DFE1B812DBF6E812DEF7E812D743270
:101F6000812D23E5812D28C7812D40AC812D09C508
:101F7000812D7FC4812D7FE1812D9F80812D248B38
:101F8000812D2039812DD1FF812D5A4B812D635513
:101F9000812DB3EA812D2B77812D6AC7812D2BC529
:101FA000812D9BEB812DA4A2812D1881812D234CA5
:101FB000812D00E0812D39DF812DFFCF812DE3C4FC
:101FC000812D4BC7812D61AE812D3144812D7A8EBB
:101FD000812DCD24812D1B8F812D08C9812D81E874
:101FE000812DC7CA812D5430812DFCE1812D5505ED
:101FF000812D23CA812DAEC6812DDFEB812DFEF907
:10200000812DB74F812D84AA812D1BC5812D6B4752
:10201000812DBE8F812DEFDF812D8BF7812D6BBF41
:10202000812D7BDF812D4F7B812D734D812D3BCF0A
:10203000812D411D812DA11C812D5BDD812D2BCC9E
:10204000812D53C6812D4BBE812D4476812D349A2E
:10205000812D356E812DDFED812DFFFC812D9CA121
:1020600081372BFF81372F678137F3FF813765B3C6
:102070008137D75281377EA48137B77C813780087A
:102080008137108381373FEF81372BC481370B4471
:1020900081374AF68137EFFA8137FF308137591D92
:1020A000813743DD81370AE681375BD48137BDAFA5
:1020B0008137AEEA8137B432813755348137539452
:1020C00081375A5081377B1D81379BEC8137AC2695
:1020D0008137BCAB8137180381376022813754C008
:1020E000813747BC8137EBE68137E42F81377ADBD4
:1020F000811EA072811E562D811E8A59811ED59681
:10210000811E7631811EFFBE811EEF2F811E5C4431
:10211000811EC1A8811E9262811E37E5811E2BCFD0
:10212000811E7FCD811EEFFA811ECC36811ED4B474
:10213000811E7B7F811E6B7E811E1B54811E1FCFE3
:10214000811E2EC8811E3886811E893B811EBE4D90
:10215000811EE7D3811EA272811E21C1811E000D46
:10216000811E4D80811E99A2811E7F8A811E16AE1E
:10217000811E5397811EECA0811E7E3A811ED6E5FA
:10218000811B57CD811B4D40811BF1BE811B000D72
:10219000811B00C0811BE02A811B4848811B8400F1
:1021A000811B9E28811BD43B811BC050811BC4BA5C
:1021B000811BAF6D811BA022811B5098811B03C71F
:1021C000811B05C8811B1401811BE3F1811BECBA43
:1021D000811BD436811BD4BD811B271E811B529DC0
:1021E000811B5A10811B5D9D811BDFFC811B3D877C
:1021F000811BE63A811B16C7811B0DA8811B3D156B
:10220000811B73D5811B2B67811B9C2A811B91012C
:10221000811FE27B811FF6FA811FD4B1811F6458B0
:10222000811F2022811F1805811FB53E811F1FEDD0
:10223000811F2BC5811F6284811F4018811F00D020
:10224000811F8400811F16C1811F8E4C811F0402D3
:10225000811F6012811F498F811F2081811F4010C3
:10226000811F018D811F2BCD811F08C0811FBD865D
:10227000811F5BDD811F0409811F1343811F2B4ECA
:10228000811F00C0811F8468811FB78F811FE2C238
:10229000811FE263811F296B811F33F5811F2B068C
:1022A000811FEDB0811F0481811FA185811F0BC596
:1022B000811FA3CF811F6B53811FE4A3811F411096
:1022C000811FD117811F1FCD811FBF57811FBF7F66
:1022D000811F1FC5811F8468811F1185811F6B4766
:1022E000811F8A6E811FC430811F1BFE811F0B441A
:1022F000811F6BD7811FCE7A811F9619811F84E2BF
:10230000811F5195811FEDF7811F5E3E811FED0CEE
:10231000811F7253811F576F811F54AA811F7F3DF8
:10232000811F14EB811F76CF811FB0BC811F5AC162
:10233000812FFBED812F0B4E812F2260812F80C0DA
:10234000812F8081812FD4B0812FDB5D812F03DF2E
:10235000812F4A0C812F42DF812F01CC812FC08039
:10236000812F8950812FE53A812FDC3A812FF53377
:10237000812F71FF812F0358812FA9EC812F3BC73B
:10238000812F0022812F3D81812FBBD6812FAEFB73
:10239000812F5099812F1BCD812F0BCD812F0BC504
:1023A000812FA1FC812FBFFB812F50D9812F23F7D3
:1023B000812F6B7D812F4FEC812F47AC812F14B380
:1023C000810AD583810ABAD2810A8640810A02E84D
:1023D000810A2AD1810A30DB810A4810810AC57F2F
:1023E000810A040C810A0001810AC430810AF43890
:1023F000810A8E6B810A1001810A00C1810A8EC395
:10240000810ABC40810AB410810AA4A8810A425002
:10241000810A5115810A4BCD810A2BC0810A2F4BAD
:10242000810AE5A7810ADCC4810A6013810A61443C
:10243000810A0344810A43F8810A9BC5810AAB2FB4
:10244000810AA8D3810AB63B810A3A2A810A81C44B
:1024500081152AD281156A3E8115EF7E8115E03AF9
:102460008115743B8115D4B68115AA688115B432E3
:10247000811534B38115FC3B8115E4328115D00000
:10248000811526EE81155AC581152BC781152BFAAA
:1024900081150AF88115D0008115FFF78115FFDD40
:1024A00081157A5F8115FB7E8115E43881155032E4
:1024B0008115A47A8115F53E8115E9388115FD381D
:1024C0008115DDB3811577B981158C6E8115343A8C
:1024D0008115BC898115362A81158CAA8115942015
:1024E0008120B42B812094008120108081200093D2
:1024F0008120EEBA81209DA78120438C81200AC0D3
:10250000812010848120308D81206B978120623A58
:10251000812083D68120C6F28120CE2081203506FD
:102520008120FF5A8120D4AD8120BEBD812010CAF8
:10253000812013C88120298681200AC081201000B3
:102540008120F537812033FF81201B458120234ED8
:10255000812001C0812088F28120F38F8120EB4708
:1025600081202CFB812030EB812071A581207FEE22
:10257000811E9820811EF43B811E5C32811ED4B3E3
:10258000811E7FFD811EBBCF811E0B89811E8AC2E9
:10259000811E50B0811EBDE2811E32D5811E03C551
:1025A000811E43DF811ECE3A811ED430811E1185EB
:1025B000811E4AD6811EC03C811E0954811E8EC9CF
:1025C000811E2EEA811EB034811EA53B811EF43887
:1025D000811EE0B0811EAA72811E75BE811EF0B9F7
:1025E000811E6DA9811E35C7811E741F811EABC45B
:1025F000811E7BEE811EEAC7811E7FF7811E7BD77D
:10260000811EA77F811EFE3E811E1504811E198D2D
:10261000811E3C6B811EEF7E811EAD7A811E44229D
:10262000811E5081811E5DC5811EBFEF811EEBE8BA
:10263000811ED489811E0CC0811E33C7811E0B49A7
:10264000811E78E3811EFFDF811E3417811E1BCDA2
:10265000811E6BDF811EEF7E811ED0E8811EE43A71
:10266000811EAE12811E63C6811E2191811E8D2C9A
:10267000811EB481811E1B85811E4432811EB59846
:10268000811E6F7D811EC370811ED007811EDAD529
:1026900081254B5E8125AAEC8125BF7C8125E977C8
:1026A0008125F57E8125D43881259E7F8125F6FF01
:1026B00081253B498125AA7881258DCA81250A80FB
:1026C0008125840081255B45812573CD81252F4996
:1026D0008125DF568125CFFC8125E0B28125DD3FB4
:1026E00081255BD581256FCB81253B4C8125270733
:1026F00081250BC08125A402812572B28125493B29
:102700008125F73B8125FF73812583D68125A2484A
:1027100081253FEF81259FFF81251BCB8125BFD4DC
:1027200081285BCD8128A37981284BD38128E9D5E5
:102730008128EFFF81286F508128ABF681282FFD7B
:1027400081282E408128510281283B7681288428C7
:102750008128534C8128E3D38128C43A8128D0347E
:102760008128519C812801C48128F7FF8128E43207
:10277000812894208128D032812810518128278FE8
:1027800081281B498128A43A81288CE0812876C1C0
:102790008128802281280A7B8128AAF08128C40010
:1027A00081281797812881C781286AB181282FD471
:1027B000811FAFFE811FFE73811FBF3F811FF8374E
:1027C000811FF9BF811F7BFF811F435C811F222175
:1027D000811F2B85811F09C4811F24C3811F750C94
:1027E000811FE8B2811FD410811F7BDF811F4B5AEC
:1027F000811FC244811FEEBA811FA43A811F958CAC
:10280000811F7F57811F075E811F8C22811FC43863
:10281000811FAE28811F7317811F6DB5811FC03FB7
:10282000811F8EBD811FBFC4811FA8F0811F65322B
:10283000811F1F92811F2808811FD0A1811F2FF1A6
:10284000802272088022F29D8022AA0480224CAD50
:00000001FF
