8005FF17
8005FF70
8006FE28
8006FEF8
8005FEDF
8006FECE
8006FFD8
8006FFB7
8006FF75
8005FE1A
8006FFF8
8005FFEB
8006FFC0
8006FFE4
8005FEC2
8006FFF7
0000FF41
0000FF90
0000FF48
0000FEF5
0000FEB6
0000FF3C
0000FFF4
0000FFB8
0000FEF2
0000FE60
0000FF92
0000FFE6
0000FE88
0000FEC8
0000FEE8
514481F0
0000FF93
0000FE00
0000FEDB
0000FE3C
0000FF21
0000FF0B
0000FF96
0000FF03
0000FF93
0000FE8F
0000FF3C
0000FFB6
0000FEBD
0000FE0F
0000FE9E
4E468187
0000FF25
0000FE03
0000FE87
0000FE0C
0000FE48
0000FE59
0000FE68
0000FF41
0000FF24
0000FF80
0000FE68
0000FE4C
0000FF86
0000FF3B
0000FF95
50468063
0000FEA8
0000FEE3
0000FEC8
0000FF84
0000FF11
0000FE0C
0000FF87
0000FEB9
0000FF8B
0000FE6E
0000FF87
0000FF86
0000FE63
0000FECA
0000FEFB
52478183
0000FE38
0000FEE3
0000FF11
0000FF47
0000FE06
0000FE1E
0000FECA
0000FE1A
0000FEDE
0000FE2C
0000FF83
0000FFDE
0000FE2B
0000FE4B
0000FE11
524580CE
0000FEB3
0000FE7D
0000FE5E
0000FFA1
0000FF2D
0000FE00
0000FFA7
0000FF3B
0000FF91
0000FE09
0000FFA3
0000FFA6
0000FE7C
0000FE44
0000FEDF
54498121
0000FFE0
0000FE7B
0000FEC0
0000FF69
0000FE58
0000FE5C
0000FE28
0000FEE0
0000FF48
0000FE67
0000FE79
0000FE7C
0000FE3B
0000FE1C
0000FE26
55468040
0000FE0B
0000FE5A
0000FE59
0000FF42
0000FEB6
0000FF8B
0000FFA2
0000FFA7
0000FFF3
0000FE1B
0000FEE2
0000FFA5
0000FE4C
0000FE59
0000FE4A
53468172
0000FEFD
0000FFC5
0000FFB4
0000FEDB
0000FE99
0000FEDE
0000FE63
0000FE48
0000FE48
0000FEFF
0000FE73
0000FEF3
0000FFE6
0000FE6E
0000FE86
51458048
0000FF64
0000FE37
0000FF06
0000FE68
0000FE58
0000FE48
0000FE6D
0000FE40
0000FE2C
0000FF83
0000FE4D
0000FE48
0000FE17
0000FF3F
0000FF94
51448042
0000FE6A
0000FE66
0000FE66
0000FE03
0000FE9B
0000FE57
0000FE83
0000FE88
0000FEC9
0000FE7E
0000FE01
0000FFDB
0000FF66
0000FE44
0000FE4E
574A80C8
0000FFA8
0000FF78
0000FFA7
0000FE73
0000FFC8
0000FED4
0000FE6A
0000FFEA
0000FE70
0000FE87
0000FE71
0000FE6D
0000FE3B
0000FF74
0000FE22
50448066
0000FE83
0000FE61
0000FE2A
0000FFF0
0000FEB0
0000FE22
0000FE3A
0000FE19
0000FFC0
0000FE2F
0000FEF4
0000FF92
0000FE4D
0000FE70
0000FE36
54478097
0000FE43
0000FE4D
0000FE8B
0000FFDE
0000FFD6
0000FE3C
0000FE59
0000FEC1
0000FE46
0000FF8D
0000FFDE
0000FE08
0000FEEB
0000FE4F
0000FE0F
5044804E
0000FFE1
0000FFC6
0000FFA2
0000FE5B
0000FED9
0000FF83
0000FE79
0000FFC9
0000FE45
0000FF34
0000FF7B
0000FE3B
0000FF37
0000FF87
0000FF07
4D418048
0000FE5B
0000FE55
0000FFEE
0000FF23
0000FE03
0000FF8A
0000FE31
0000FE0F
0000FE49
0000FF69
0000FF03
0000FE3B
0000FE02
0000FE08
0000FE62
55498081
811F7FCB
811FFD5E
811F0DDB
811F8F88
811F0804
811FB69F
811F3627
811FF306
811FF77E
811FB679
811F9182
811FB7DD
811F856A
811F9235
811F3246
811FF246
811F0BEB
811FB0FA
811F49D0
811F8D11
811F86AD
811F8294
811F839E
811F0A39
811F7ABF
811F3042
811FEC78
811F08E9
811FA61E
811FDCA1
811FF62C
811F53A7
811F4204
811F9CEA
811F2FC5
811FCFEB
8110C589
81108081
8110ABFF
8110FE6A
81105CE2
81102016
81106CD1
811068EB
81107F6E
81104401
81108590
811080A1
811032A0
81100088
81107206
8110D706
8110ADF9
811088F9
81106027
8110CD91
81108695
8110AF05
811029D9
8110386B
81106B44
8110BDD3
811084EB
811080A7
81103468
8110162F
811080A6
81102204
8110312F
8110D5FA
81104866
8110E64F
81219859
81215047
81211C26
8121940C
8121C6BE
8121FFFE
8121C4B1
812188B9
8121F61A
8121CF4A
812188B9
8121A8BD
81214B50
81217AF9
81217266
81215766
8121EF4C
81218CBB
8121BBF2
8121022B
81219226
8121D206
81215704
8121EE49
812110B4
8121C327
81218E1D
81218785
81212084
81213327
8121C858
812122C4
812169D1
81219C58
8121BEFE
8121AEBC
8116B964
81167F7B
8116F1BB
811691D9
8116A9DD
8116434A
8116B9C6
81163F40
811615D3
811600BF
81167A06
8116ED42
811618FF
81168504
81168DD9
811688B9
81168007
81167704
81168111
81167DE4
81167DD9
811638FB
81163EF7
811690B4
81165AD3
81163CC8
811630E0
81167C7A
81165D7A
81168EE5
81163BA7
8116DF7F
8116EF7E
81166387
81165022
8116188B
811F3D7E
811FEF5A
811FF191
811F71B9
811FA6DB
811FC800
811FBACE
811F7F46
811F0D99
811F20BF
811F7B04
811FFF40
811F58BF
811FC504
811F8DB8
811F08B9
811F02A7
811F7F24
811F85DD
811FF9F4
811F7DD9
811F39FB
811FDCF7
811FB3B4
811FA0A1
811F294D
811F70C0
811F787A
811F4F4A
811F43B8
811FBEF7
811FDF6A
811FEF7B
811FE3A7
811FF222
811F5002
811840A3
81187D66
8118FB56
8118EF6A
811855D1
8118AFD3
81184700
81184087
81184A42
8118F5B6
8118B6A8
81182CF1
81188120
81187012
81187366
8118DF6E
8118A8D1
81184010
811878A2
8118E202
8118122E
81184204
81183246
81187646
8118F306
8118DFCF
811882EF
8118122E
8118D76E
8118C7BD
8118C118
8118D53A
8118842B
81181204
8118F300
8118193B
811BFF74
811B0E7B
811B8DF9
811B2DF9
811B2F7F
811B1F20
811B82EE
811B3542
811B0DB1
811B22BB
811B7642
811BEF57
811B10BF
811B0586
811B8DD9
811B28D1
811B8225
811B6B4E
811B848B
811B5CFC
811B7D51
811B39FB
811B6C73
811BB094
811B029B
811B2440
811B30A2
811B705A
811B7F7F
811B8AED
811B3966
811BDF7B
811B1F73
811B7307
811B1821
811B2401
81198081
811912E7
8119796E
8119FF3C
81195CA0
81193624
8119C809
8119A8F3
811918D9
81195F6A
81198950
81198C54
81197DCB
81197DD9
811932AF
81197766
81195EC4
81198100
81192206
81197A04
8119C60E
81198604
81198606
8119C562
8119B4BE
8119CF7D
811982A7
8119E3DF
8119252D
8119B9A8
81192DF9
81192815
81193583
811978A6
81195D48
8119A514
8120FB46
81207F49
81206BFA
8120F4FE
8120502D
81204D00
81200124
81200940
8120AFC0
8120A5BB
8120D22E
81206512
8120A88F
812053AE
8120CDFD
8120ADF9
8120CB36
812073FF
81206EE9
8120A5CC
81202DF9
812039F9
81206D50
8120A898
8120D626
81207555
812079D0
812038A1
81206900
81204502
8120EF4E
8120DED7
8120C870
812036AF
8120502E
8120C000
811B3326
811B8D1D
811BAA99
811B09A1
811B2424
811B4342
811BA946
811B5782
811B4304
811BD74E
811B5ADF
811BFA65
811B7A06
811B8508
811B85B1
811BA091
811B7716
811B7FFD
811B1224
811BC540
811BEDD9
811B88FB
811B8396
811B57BC
811BC6AE
811BED30
811B39D1
811BB0BB
811BA9D9
811BBEFE
811B8DF9
811BC9DE
811B3940
811B3C03
811B322F
811B3E7D
81277E56
8127460E
81270D10
8127A57A
8127B2B7
81278FC0
81277126
81274304
81270B84
8127AD73
8127AD81
8127ACFB
812799A4
81279287
81274514
8127AD90
812709F3
812738ED
8127C5FD
812780E9
8127B9F3
812779DB
812779FA
81271484
81273A59
812730D9
8127BDD9
812700A9
8127CB18
812706A6
81279F06
81277AE3
81276A4E
8127BDBB
8127B0BF
8127C502
8121F1AB
81210E04
81218D2E
81210A04
8121C55C
812128FB
81214768
8121C591
8121E090
8121724C
81212D58
8121FFFB
8121734E
8121EDF9
812190AB
8121823D
8121ABD4
8121DEF9
81217A44
81216F40
8121CE1B
81218FFF
8121ACF5
8121EF4B
8121C5A0
8121C33F
8121879C
8121FA95
81213010
8121FC53
8121CFF9
81210605
8121ECEF
81215A74
81213F46
81215204
811A1174
811A3BFA
811AB7B7
811AB0F9
811AABDD
811ADFEF
811A3BE4
811A7D86
811A0CF3
811AB09F
811A740B
811A672E
811A33AF
811A8565
811A8DD9
811A2891
811A2020
811A7FBE
811A2155
811AF4D6
811A7DD1
811A39FB
811A6CFB
811A9886
811A58BB
811A2580
811A3860
811A786A
811ADD1A
811AC337
811A34E6
811AD7EA
811ACF5F
811A4B55
811AC311
811A4123
811F85F9
811FF65B
811FF9DF
811FEF5A
811FF5F3
811F8DD3
811FC6B1
811F8801
811F482E
811F0F5C
811F8E08
811F8899
811FFF00
811F7853
811F7246
811FF746
811F38DB
811F3450
811F7909
811FB022
811F922E
811F5704
811FF2EF
811F5264
811F6228
811F72C3
811F864E
811F52B6
811F940E
811F8F5D
811FF4BC
811F0411
811F8799
811FC254
811FE040
811F60D2
81124D01
811210EA
81124224
81128622
81120081
81120444
81124508
8112C4F1
8112D32F
81125A40
8112C606
8112FFF1
811284B9
8112B09A
811272A6
8112D72E
8112D734
8112C59B
8112EE99
81124148
811282AD
8112879C
81128FC1
8112A95A
81123C56
8112E659
81124F9F
81128DB9
811273E4
81124402
81122A77
8112E3BE
8112D582
811271A6
8112546E
8112866E
811BB01C
811B2B02
811B8854
811B6838
811B0281
811BC342
811B4100
811B186A
811BC380
811BFFFB
811B38C3
811B7944
811B7A2E
811B4D40
811B08D0
811B2DD1
811B54AB
811B5204
811B3026
811BD204
811B7D7A
811B90C1
811B6652
811B55CE
811B4046
811BCDD8
811B31E9
811B031A
811B7BEA
811B169C
811B21A0
811B7C45
811B1F7A
811B302F
811BC92C
811B9CE7
811D0059
811DFEB0
811DFDF3
811D3A95
811D0D40
811DCABB
811D39D7
811D7766
811DDFFF
811D339F
811DD320
811DF61F
811DC7AF
811D0704
811D89F8
811DA8B1
811DC202
811D2EDD
811D8940
811DA5B7
811D7BD3
811D505B
811D7B55
811D7861
811D05BB
811D070C
811DB0E3
811DF34A
811DFB3A
811D4371
811D72A6
811DD72E
811DC51E
811D6305
811D1A13
811D4100
8127F5CE
8127766E
81270426
8127822E
8127B286
8127D550
81274D79
81278231
8127A040
8127E8C0
8127AA37
81277DE5
81279952
8127F772
81277602
8127570F
812719EC
81279842
8127D6F7
81270951
8127800D
81278EB5
812780A9
81278314
81277E76
8127FF52
8127CC14
81270991
812784A0
81270500
8127CD5D
8127E9B5
8127AEC1
812710C2
81278CFE
8127AFFF
811BB2DE
811BF5A7
811BDBBB
811BBBDB
811B796A
811B782F
811B3EF7
811BFF65
811B8FD9
811B28E9
811BD00E
811B8222
811B4C16
811B85EA
811B8DD9
811B28FB
811B5616
811BB7FF
811BF240
811BC5D4
811B3D59
811B39F9
811B6B99
811B2C7D
811B52A5
811B540A
811B7A00
811B7C40
811BFCDA
811B5006
811BD088
811B1246
811BC315
811BE767
811BEB95
811B730E
812BE593
812B5824
812B8580
812BD2EE
812B72AF
812B7444
812B5CF9
812BC73F
812B30F9
812B7ACA
812B8C7E
812BD324
812B5708
812B3CF6
812B7726
812BD74E
812B17FD
812BCC63
812BF2AE
812B5A08
812B802D
812B8F24
812B80C9
812B8F95
812B40A9
812BCBB1
812B0711
812B8895
812BA491
812B7860
812B4FB9
812B60B1
812B94D0
812BB8D1
812B28EF
812B062E
81228201
81228810
81228448
8122FBF7
812219ED
81221004
8122CF8B
8122E9F9
812232A9
8122736C
8122500C
81228942
81227A63
81227DD9
812230AE
8122D726
81221BEC
81228802
812202AF
81225204
8122440C
81228704
8122AE86
8122EDD3
81228418
8122CA1D
812287BB
8122ED59
812269C1
8122794A
8122EFB9
81220891
81221182
81227DBA
812210AE
81221204
8124BFFC
812409A5
81248B14
812490DD
8124A52C
81245F68
8124008C
81241502
8124C3D1
8124B9F7
81247AF6
81247F7E
8124C9B9
81248CC3
8124EF7E
8124CDFB
8124B710
81247F24
8124BF5B
8124A0FF
81246A61
81245042
81245E69
81249002
8124BCF7
8124DDB9
812482A6
812452BE
81245B10
81249B4A
81245946
8124FF7F
8124A8FB
8124E204
81247006
81247000
811F1024
811FA41E
811FFAFA
811FFDF9
811FF9EB
811F808B
811F8348
811F28D3
811F0A00
811F0F14
811F4D41
811F8840
811F7ED1
811F7F4D
811F89B9
811F28D5
811F69C8
811F2002
811F2E0E
811F7204
811F7D52
811F38C3
811FF486
811FD7F4
811F903F
811FBC7C
811FFCF0
811F237E
811FCB2F
811F478C
811F85C9
811F8851
811F7B5F
811F67A3
811FC48C
811FBDF1
81257346
8125DF1C
81256258
81258BF9
81250481
81258710
8125C702
8125C2B7
8125375E
8125FFD7
812529D0
81253DD9
8125B8D1
81257180
81257002
81255746
81251DEC
81250920
81250DFB
81250FC1
8125D2AF
8125F226
8125D626
8125D5A2
8125FDDC
81251AF3
81250026
812587BD
81254344
8125124C
81253A66
81257F1C
8125D0A2
81251CD0
812504A1
8125A492
810F000C
810FEA58
810FE092
810F11E9
810F2824
810FF10A
810FD786
810F7BDD
810F1FE7
810F9637
810FC6AA
810F6206
810F3AD7
810FD60E
810F857A
810F2891
810F523D
810F634E
810F852D
810F8124
810FA9F1
810F08A9
810F8416
810FF5F4
810FED48
810FBC50
810F38E1
810F006A
810F8FDF
810FCEFD
810F2A46
810FF9E8
810F376E
810F062F
810FE519
810FADF9
8123B366
8123CE2C
81232199
812338E5
8123CF4B
81238B40
81233306
81235F4C
812309D1
8123294F
81237D57
8123C102
81231026
81230000
81238D38
8123A8B9
8123B231
81232EE7
8123D60E
8123D4BB
812379D1
81239DDB
81234999
81238082
81235FD4
81232DD9
8123B8E1
812333A1
8123883B
81233A31
8123D209
812328C0
81230C5A
8123AB90
81232125
812373FF
8120FDCB
812080A5
8120000D
81204604
812081B0
8120ABD5
81205F72
8120EA3F
812032D6
81207FDF
812035F9
81205AFD
8120B6E6
81202A58
81203202
81205F4C
8120BD6B
8120AE39
81201D77
8120DF2D
8120C22E
8120E606
81205607
81208F5B
812049C1
81200BCD
81208A2D
8120C7FF
812043A4
8120B45B
8120400A
8120170E
81207EBF
81208CE8
81209F62
8120AF95
811F0222
811F3564
811FFB1C
811F6A46
811FDD5A
811F8FFB
811FD50A
811FE855
811FC100
811F95AA
811FDBD7
811F2490
811F0900
811F5A00
811F7766
811FDF5C
811FADF9
811FDFBD
811FC4A9
811F121E
811FCE1E
811F2F44
811F7862
811F7F4F
811F0F48
811F4A10
811FEB5E
811F00BF
811F5206
811FD7DD
811FC630
811F6501
811F19D9
811FBCBE
811F73E5
811FC31A
812B7442
812BC32F
812B00AB
812B9422
812BFE8E
812BB5FF
812BD76E
812B88F9
812B8880
812BA8B2
812B22B7
812B51E3
812BBB46
812BFC19
812BB583
812B571F
812BB9DF
812BFFDB
812B7F60
812BE118
812B94B9
812B2EED
812B2C7F
812B570D
812BDF16
812BDE91
812BEF51
812B8481
812B8214
812BF1B3
812B8F59
812B2990
812B8EFD
812B8AC2
812BEF55
812BBEFF
812E8F99
812E2191
812E0C06
812E026E
812E5004
812E7516
812EFCFB
812E42AB
812E7646
812ED551
812E86E9
812EC2CF
812EB8BB
812E503B
812E9156
812E8758
812EA9F9
812E30B9
812EDDFB
812E8591
812E8BB5
812E3AC6
812E34EB
812E566E
812E6F44
812EDBD3
812E80BF
812EA4BB
812E638E
812E8E37
812E0304
812E2E5D
812E5F6F
812E9F5E
812E9E6F
812ECFDB
81346BD9
8134F1B0
8134D9B5
8134EF5E
8134D47C
81341495
81347EFB
8134C23D
8134E3F9
81348DFF
8134CF99
81348093
8134A558
8134FAFF
81347B4F
8134FF7A
8134ACF3
8134D9FA
813449BD
8134BD7B
813492AF
81347306
81347F4A
81343442
81341569
81343BC5
813484FF
8134426F
8134732E
81344C0C
81349016
81346710
813494AA
81349DC4
81348DC3
81345188
811A3B5E
811A6D72
811A90B9
811AB8B9
811A2E43
811AC8EB
811A3226
811A7F04
811A8DF1
811A28E7
811A5A46
811AA512
811A28B7
811A4306
811A8DD9
811A28FB
811A5206
811A2314
811ACC48
811A85EE
811A7DD1
811A58FB
811A6B14
811A3446
811A92BF
811A3458
811A70E0
811A756A
811ACF5A
811A8BC0
811A7187
811ABAFA
811A162E
811AD327
811A5132
811A5100
801168F3
80117C9A