010011000011111110110101101011001101111111011010110001100101010100111110110111101101101011010010000000000010110110101001101011100111101011010100010111000010011111001101001011111110010100101001000000000001110011101100110111110111111010000010000111000010001110001100001010111010000110011000010001000000011111011100001011110010110110011010000100111101111010000100100101101111011111011000100100000101000101000001001100001001110001010110001110101110111001100000110000000000110001000011101110011101100000010110110100010111101001011001010110100100000110001000001000110000110010100001
110000000010111011110001111110101011111111010011011101001011111100111111100011100000001001110000010011000011111110101000101011100011101111000101010011000011010111000011011010001010001011011000000100100011101011100100101011011111111110001110000111101100001010000000000000011111000010010000000000000000000010100101101110110100101001100010000100010000100011101110110111101011011001010010000000110111110100101011110101101001110101100011100010110111111101111110111001111100000101011001111111011110111011111111110111101011001111001110111111111111111110010100011010011100101011010111
110110000001011011101111111101111111111111011111100011111100101101010000011101000000000000101000101101111110111101111100101001111011100110101010010101111111100101001111011100111000000000100010101010111100001001011100001000011110110000001110101011100110101110111000010010110000000000100001101100111100000000010011011100010101011110101001010101000010000111101101100011100001011000010011111111001111011100101001010010101011111101010010101011011111010111100111111111001111001101010100001101000010111001000001001111011001111010101110111111000101110010100010110000101111111111110101
101100111100001001000000001000010010010000101000000010010010000001000001001000010100110000111111111110101100001100110110010100100010000000101110101001011000100100010011110100010001001100010001111111110101001000001100001010111000010100111101101000111101110011110011110101001111111011010111001100111111100110000011011111000100011101010101001010000000100011110011110010100111110000100111011011011111111010111111110100100111000110111101110011000010111110011100001110111111001100101101010001000010001011011000001010100100010100101010101000010011001000111011110001001010100101011110
001110001010101010101101010100001001011111111000010100100111110001111101101111111001111111100111010101101111010101001100000001101001010110010000010001110010000101000100001000010000000000100001110101101111111110100000001010001011001111011100111100101101010011000001000100010010101011110110100000110000101011101001100010111110101010001110111111101101001010110111111001100101110001000111001000110110011100100011010000000001110001000111100011000011100110111111110110111011001111010110111011101000100001010101011011111011100111110100011011000111101011111100111010001011000001011001
110100001010111111001111101111111000111111111111111111111111111110111111110111100001001111010010101100101110101011110000010101101100000100010000010000110001011010111001000001000010000000000110011011101101000110111010111010101011001111001100010100100101000001101001010000100001100000100011010000000010011011111101111010111111111010101111010111101110011100111110111101110001110000100111010001111110010111000001001010010011110100101011110011000011101111011111011100001111010010110100001010111101001100010000010101010011110111100110111011100100101011110111110110111011011111111110
110101101110001011111011111111110111111111011010100011010000001101000110001001100000100000001011110011111010010101101000001001100010100010001010010101111010010101001010011100000001000100101010101100111101001001011100001001111110110100001110101111101101101101111111111101010001110000001010101101111101000000110111011101010000101000011100010100010010100011011000101001100000011000110011111011000001101110111111111011100011111011101111000000110011010111101000011111011010001101000000010111000010111011111101111111101010111100001110111100101101011100110001010100101010111010010011
010011000010111110001101001010101000101111011011011101101101111100110010110110001011001011010000000000000010110111101001101011100111111111010000010111000101011010001001001011111110000110101100010001001010111111101011110101000111111010000010010111000010001100001100001010111010000000001000110001110011011101011100000010110011110010001011010100111101110111001101101101101110111111011000000100100111010000000000001000011000110011010010000100110101101001111111110000001000110010010011111010111101100100111011000101011110001001010011000110100100001111011011101100110100110000100001
110101010010111000010101001111011100101100111010011000100010111110100011100110000101011001000000110111010010110110101010111111011011010010110001111101011111111011001010111111000010000011000001111111101010111100100001101000001111101111000110011111101101011100011000000010100100000000100011000000000010000111001110101001010100111000100011010111000010000111000011011010011110111111111001000000111111110010010101000100000000010100011011100000010011010000100011110011001111110000010100110001010001111010111110110101101111001111010100010011100100110101010100110100011111011000110001
100000110101100001000000001000011100000000100101001100001010111110000001111101011010010100010011011010011100000001011011010100110100111001100011101000011000101001110000110101000101111011100101010111000011111110111010110010000001010000100001110010001010110110110000111000000000000101001000010101000110010100001000000000100000010100000000100000010000001011001101001010111011100110011000101110001001101010110001111110011110001011111101101100101101100011110011111101000010111111110110101100010100000111100010010010010101111111000110100001110000000011100111101101001111111011010101
111011001011011100011000001000101000000100000101111101011011100010000110110011001001000001000000010111000010011100100000100010101010100100000011011111111011010111110110111011001010001001010100100100010011100001000111001100011010001110001000111100111101001011010011011111000001001111110100101110111110100011110011110101001111101111010110011110101111011101111111100001100101001001010110111000101010110001111010110001001011101011000010000100101000000001100011011001000011000111000011011000000010101000110011001101010101010000101101010000101101111111101101111100101000010000111001
001100101101001011011111000101100101110001111110110011110001011101111110000111100001110000101111001110101100110110110101010011001001101111011100000110100101010011010011101000010000001001110101000000000000000111100000101011111110101110010110100111110100001100100011110100111111111111011100010011000000001001110100101110111010101011111110001100101100111001110100000100001111100010001110000100010010010110000100000110110100110000110111101110000000000101011100011100110100111011111101000000100001010000001100101000100110010110011011101010110101111100110000100100110010001010100010
111011111110010110010000011010000001000101000011100000000000001001000011001101011101110000111111011101001000101100100100000110001001111011111001101000001100100011111000111001111000110011110101100101011000110101101101101101110100110000100011010011011011101110010110111111011100010100001101100010111111110111011010011111000001001101110100110110010001110001100011111110001110001110010000111111011100111010010000110000001010001010010000101000110100001000111111110100110101111010100011010001000011100010111111111010100100010000010001100010010011011010011110101101000000010000100001
101100111101110001110010011011011111100100010110110011010010011001011110011100100000110100101010001111011100100100110011110110010011111001010111000110000100010010111001100100000001110001001110010010000001000011011110111000110100110000110011100011011010110100110110111111001111010100011100010111011111011100011000000010000000000100011000101000010000110001100011110100001110001011010110001100001000101010000011110110001000001111000100111000111101110011111110111100110101110000101111010000101101100000101010100010011000101100000110011110111000001100011110011101010010000010101001
101101111101101001111111111100100110101111111110111011011110111110010011110010001111001111010001101010010000101011000000001100111000110010111011101000111111111011101110110111001111011111010001010011110000101001010000100101110101110000100011101011000000101110111101000001101110010000000111101110111110110000010110111101010000010100100001000001010000100101000101001010010101010100100101010111110101111000001101010000010111010100110001110010000010100000010000001101011011011100001001010100000011111000000001100110101111101111010010011000100100010101100001000001001110101011010011
011011101010111001010011010000101001011001010011100001101111111101011100001011110100110000101011101111111110011110111111011111010100101111111110111011001000111000110000111010100100000101010000111111111111111111111111111111000111001111010000010001100010001110001100001010010001000010001000011101011101001011111010111111110110011111000001100100110111000010100011110101001101011111010101010111101110110011110101101011010100111001011010110010001000011000111011110000101111000000010000101001101000001000011110011110110101110100101011110100000100100110001000110010010111101001111111
111111001000110110001100001110100110110100011110100010111111101010111010110111101110001111010000110001010000001001000000010000100010110100001010111000111011110101101000000011000011010010000011010111010111000000000100000100011100110000101111101111011001110100000111001100010000001001110111001110001010000000000101010100010101001001010100010001000000110101011100101011110100110000001011110111000111011111111100000010100111111111100111000011010011000111000111111111011111001111110100010001000010001001000101011101001011011010111100000001010100011010111111110111101111101011001110
110011001010011110111111111111101011111111011010011111101111011000110010011010010001101101100001110101100010110101000100101011001011001111000100011111101111010101000111001010011010001100010111101010111111010000110101001001001110001110001100010111111101011010011001000010111110101111111100101100101101101011100100101111001111111011111111110111111111100111001110111111111111101011001110010001010000000010000100000010111101110100101011111110011010011011011100100111101101110000000111011111001010110001011101001010101000100000101011000111000010100111011000101000011000110000101000
010101010010111110100111100010101011001011010010111101101101101001110110110000100101110000000001000011000010011110101100100011110011000110111001010101100111010101001100001011111111110000001010010101001110000111100001000010001111001111010110010111111101000000000011011100011000100000100001000000001110100010101011100111111011101011011110111111101111011110010111101001110100011101010101001000110100000001110011101000100101111110101011100000010010001110111001111011100111000111111000010011001000000010111101101110100011110110011000110010010000101110111101101010110001110011001111
101111111100111111111111111111100111001001010110100100011010000110000000010000001111001111010000101011010110110111100011101111001010101010111111111111111110111110110110111111010111111111110110111101101100101001010001000101100101110100110011100010000000101011111100000011101111001011011001101101101110110101101111111111110001011100101101011011000010111111101100101011111110001011101101001010011101101001111111100000000011001000110001111000110111000001000001000110001000010100000000010001001010001011111000100000110111001111011011011000000000001111100100000100101100101110010011
010011010000010010001100001010110100110100101111111111000111011000000000000010000110000100000001101110010010001100010011110110001100100000001010111110101111111100011100001001100000001010101000110001010010010011101110111000110001110000110011010100000010100101100010111100000000000000000000000011010010011100011001000010110000010100000101001000000000111001111101001000110000010000000011110101000010110110000011011111001011001011110101101100111111100001100010111101000010001000100000101100010100100111101011110101111010001111000111001000101100011100111101010001111111111110110110
010101000010111110101011100100111011011111111110101111101101110001110010110111001110001001000110000101100010111110101100101011111011011110001100111101101011010101011100001010111011110000001110010111101010010110000001000011001011001111011100110101111101000000000110001100010000000000101100011000001000000011101101110111111111101011011110011111101111100100011011110001010001111100000000111000010011000101101000000010110001110001100111000111101011001110111010110010000110001111011000101101101011010110110001101111101001111110111100010011100100111111010100101010111100110001001110
011111011111011101000001001000111110000110001101111101011100010000111011110100001100001011000000010011000010111100100000100010101011101011001111011100111101100011100000100111101011110011011110000100000010010101000111001100011100101000001010111001111111111111011111010111100001110000110101111110111110110101111011110101001010111011010011100000101111110111110011110000000101010101000000101000101000101001110010110101101011100001000000110001001001010001010010001101001011010010101010011000010010101010001110100101001001010000100101101111111101111011101011111111010110010101111111
111110111101000001101111110000001111011011010101101011110101111010000000110101010111100011110100010011000101010011011100001001110101100011101110100010001000100001111111101000011100111000111111000100110100001011000011010101000100110000110011001010000000101111110011111111011111101111010100101010000000101010110011110100000011001111110100001000111101111010100010100000100110000001000010110011000000110111111010010011100110001011000100011100010100000000000000000110100000001101110001000001000011111101011101001010100010111011001101011111101011010000001100000010100000010010000001
110110111101001011111001101101110111111011111111100001111111101001010110011101110000110000101011101011111101001101111100011001111010100010101110011101111101110101111111011000110001001101100011101110111100001001001100001000011110110110101110101111100111101110111101110010010001010100100101001100101101000000010011011101010101101111110100010011000010000011101101001011110101110100010001111111000011110110111111110011101011111111001111101111111111010110111011111111011110001111010100010101000010011011001101001111101101110000101110101110001100110010101110110000111111011111011110
100000110101000001000000000001010110100000000010101100010010011100000011011010010100100100011100101010011101100001011011111101000101000001101111000000000000100010100101100110101101110011111110101110011010101001111111111101010100110000110011101001000010100101110010111111000111110100000001111111111111010100010000000100000000000100000000101000010000110010110001000000001010101011010101101110000000101001111111111111001001001011000101111000111100111001110000001101110000111010101110100100110100100110100100000100110101101100001011011011101010001000011100001010100000001111110011
101110001100001010111011111101100111111111011110100111010010001100001110001000100000100000001001101001100010011100111000000001111010110010000010010101111110000100000110011101001001000000001010101100101111101001000100001000111111110100001110111111101101101100111110111111110001110000101010101000111101000000110111011100010001101000111110010100010010101010111000101011100100011100110011001110010000001011101011100011011001111011101111000000010010000101001100010010111010001101000010011101000010101001111101111111101010101101001110010100101101001101010000000110111000101110000011
000100110111101101000011010110011001001000101001010001100001010001111101001101110101110000101111011110111111000110110111101011010011101111111100011011000000011100010100101100110100000101001100111101101111111110101011110111001011001111010000010001100111000111000000100010001010000101001000010101010001100111101000110011101011101011000010101100111111001010100011110100101100001111010101111100101101110011100011101010110000111001111011110010001010111010111011110000101100100101010110101011111101000110110001111000110101110100000000000110000011100010001000101010010001111000101000
101000111100100000110111110001011111110001111110111111000011111100111100111111110111100000110101101100111101100010111111111101010001001001110111010100000000010100000101000001100100000100100000010011100101011011111000110111100101110000110111000011000010111100001001100010101010011101010000000101000011001111001101001011110100010100100001100001010000100101101010111110101111110010001000000101110100000110100001011110110110001101110101110010010100111010110101101001111000111101111001101110111101010100001110000000110111000111001011101110010011100000011100010001110010101010001001
111001110110110100111110010011011110000111010000101111111001101110011111011111101110000000011101101100011000011001000011110100000100000001000000101100010001111011111011111111000011000011000000111011001110110011111110111100100000010001110001111010001010110111111110111111111001110100000111111111011011110111010010000011000001000100001000001010000001010001110001000000011100001111010110101011011010111110100111111011011010001011011100001100101101011000000011010101000001110000100111111000011100111111101010110101101100111001010100010101001000001011010001000011000111011111110100
110111100010110110011100011111111000001001111101110011110010011110011101001011101110110110111011101111011000111011100111110100001101110001000111101101010001110011111011110111100011101011010000111011001011111101111111111101110001010001110011111000011010110101111110111111110101110000001111010101011010010111000010010010000001001101110000101000000001111000110101011110011000001111111001100010011000111010000101000010011011001011010100001100101101000001000011010100000001110000000011111000011100110110111010110101101110011111010011010100101000001010010101010000000111001111110100
101000111101100000110010011101001101110100011111011111000010111000111110011011100000110000101001011110111101101010100011110110010011101001110011010111000010011100110000100000100001000100000000010011000001011111101100111000110101110000110011110011010010110100000011111010101010001110001000000001000010001010001101001000110000000100101000101000011000110001100101110110101110101111011100100100101101000110100001111110001011001111101100111100111101110011111010111101010111111000100010010010100101000111101000100000111010101110001111011111101100001100011100011001100000000000101001
011001000010011100011111011010101011111010011101010001000111100000010000001010001000000100101000100100000011110001111000110010101011001111010100011111101110010110010111001010011010100100011110110010111010100001110101001101111010101111011010010100111101001011000101111111011111011111110101101010111101101011111101111111101111111011111111111111101111010110101000011011100111001001010000110000000010011011111110110001001110001011000110011100101101001000000000000000100101010000001001111011101011000000001111101110100100001100101011010111000010001100001000000000010000000100001001
101100111110000011000001110011111010011111000000000100100100000100010000000000011100000100001001010000100010010100000100001000110100110000100001100000000010100001000000001000000000000000000011110101111011010100000000000000001000001100000000000000101111000100000010001010010101000000100011001000111110010101001010010010111110110010000010100100101111000000000011010100000010011011110000010111100001001000110001000100001101110101101000001000001010010001110010010010010101110110101011110100010101100011110111010100011000000000000011111110100100000100010111000100010010001110010101
000000000000101010000001000000010000100101000110000110111001000010001001010010000000000100010000100000010000101010111011110101100100101101110111110101000011111011101100010111101011010010001001001011100101110011111011110101100100010001110001111111011010111110111111111111000000010100000001100110000011010111001011010011100000010000100001100000000000111010110011110110001010001111010110101000101101110101001110001100100011001100000011110010100100111111001000100110000011110010000011101100010101110110100101010101011100110000101101000110101100110001001111001101000001010000101011
000000001011101011110001100110001001001001110000010000100011000111101001101011111000111001111111010000110001000011101110100101110010110001010011001101001010100110100011011011010011111001100101111111101111011110111111001011001011001111010000000000101101000010000001000010011101001011011100111101111110110110100011110111101111101011000110001100101101000011000010000000000000111001111111111111101101100001101010100000101010011011000001101100011111010010111011110110000101110011110111101000001101001000011001000001111001100010101100001011011111100011001110101110000011111001111101
110001000010111100011001000110011001010000100000100000010100100001100010100101011001110000001110000000000001000111101101100000110101110001110011000001000010000110011100001010110101110101101111100100011001100010100000000010011011001110000000110001111111010101000010011101010000000000101001101011101100010101001010010000101010100010001010101100111101101010110011110101001000001101110111010010000001000000010001001011011100110001001101111000100100111010111010110110100111111111010110111100100000111110111101111111100010001100010101011111001110100100011100001010000010001110000001
101001001011110101010000001110011000000110111111000000111111110011010011101011010101110001101111100000100000001001100100000001011110111011010111101111101110011101111010111111110011110001110001101100111111111001001101000101111111111110000110111111111100001110000111001000111000110001111110101001111101000100110011111110000101101000100111000111000010101111010000101010010000010100001010111111001011110100000010110000000101011000110101000111010010111110001000000110110000100001000011110111000010110001101011111010000001011100010100010010010100110101000000001010010000010110100000
011111000010111110001101001010111101000110101000111100111111110001100111111111111100001011000000110111010010010110000100011010001010001011110111111111011011111101111010111011010011100000100001111010101010111111101100100111111011001111001100010110101111011001011100000000010000010000101011000000111001000001101100101101110101110011100011000101100011000110000101011010011100001110111000110111111111110001010111001100010001110100110011100011010011000011100010110011101111000111011100101001011010101000111111110101001100001101010000000000100110100110000100111010011111110010011010
010111000010111100001101001010101100101110110011011101001101110100110011110110000000001011000001000001010010110111101001101111101111001111010001110111100101011011111001001011101111000110001100000000000011111011101111100101101111111000011110010111100110011100010101001011110000000000100000010001010000011001011100001010110000110000000011100100110101100101000001111101101100001111111100000100101110010001000001001100011000110001110000010000100100000010111110110000111010110010110111101011111101100100011011010100011010001111010001100100110101010111110011111100110101110000101101
110000000000101010101001100101101110011111011011101111111101110001010110011111000000000000001000111011110111111101111100111111111011110010001000111100111100110101001110011000111010000100001010111111101111010101011100001000011010100100001000101100101101001000110000010000010000000010100101111001011110111100010011011111011100101011011110010111101111000101001111001000111100010100110111110111000010110111111111110011101111111011001010011111111110011011100011111110001110000101011100101100000010011001101111111111010000100010101110111010001100110111100101110010111011011001110111
010000110101101001011111111000100100111101111111111111010010111100101110111110100111001111011101001110011101000010011111100111001101101111011100010010100101001110000101100001000110001010000000001000111100001011101110111101110111110000101111001110010000101000110011110000100010001100000000101010011101101001010111011101000100010100100101000011000010111110101100001010101011110111100101110011000010110101001100001001010001110100110011110001000010110110000101001010011100001000001000110011010100111000001111010100111111000101111000111000110101010110100100010001101000100111000001
101010110011011100001111110100110000000001000011000010000010011100001001001011110000000100001001000011000000011100000101000010100000001000000011000000000000001100000001001000101010000000001011010101010010011111100001001011101011000101000110001000111101011000000011011100100000010100100011000001000010001110001001000011111110101010000111101110111101000110111011110111010101011011110011010001000010011101011000001010110110010000100010110010000000011010110000001111101101111111011110000001000010011000000011001110011000000100000001110010000000001010111000001011101111111111011100
111111111101010100010011010010000111001111000101000000000000001011100011101000010011111101111111001111101111111111000000000010001001111011111111001101101110100001000100011001011001110010110111000000010010101001000101000101110100110000111111001011001011101110010111101111011100111110110101100011111000110110110000000110000001000101111000101000010001110011110011111001001110001011010100110111100101101010011100110111101110001011100100100000100100000011010100000011111101111111111011000001000011010011011101101010100101001011011001101110010011010101001101001101100000000011000001
111111001010010101111110001111111011010110101100100101010000000011001100001101000111111010111111010111100110010100000000000000101010100100001110101110111101110110110110111111010001111011110111000000010000000000000111001100111010001111011110101100101101010011101101100111011111111111110111000011001001100010111011111111001111111111111110011111101111001100000000000011110111110000100111011111101111010100001010100000100101110110011000001001000011000110001111001111111110000100011000010001000010001000010001001011011010000100010100100100010000011110101011110101111111111111110111
001011010010000110000101001010101110011010011100111101101101010000111110110111000010001011010000110000010000110011101000101111101111101011011100011100101111110001010100110110000101101010101001010011000011011110100001001011101011101111010000100110111101010001110010010101000000010000110001010101000011111111101001110110101111111011011110011110101101101010111111111101001000100011010110010001000011010101001101001011100000100000100111100100100001111111100100000110110010010000000010000001000011011100001000101010100000100000101010000010010010000100000000001000110001100000001000
001000011100001001000010010101111010010011100001110111110000010001101110001000110001110000101001101010100000101001111011110000000111101111011111010111110011010100011111111110111000000101101000000000000000000011101101100111111111111111000010100011111101000100000011111110101011110110111110010011011000011101111110011100111011100010101010010111111110111111111000000010001010001111100000101000011100100010000011110101011100011011100101100000000010100000000000000000000000110000000011101110001000000001110011100011110011101111010010010011101111001000010100001000110001000000101001
100000101100000000000111011010000000110000000010010010010010101111001101000110110111010111111110001101111100011011011011110101000100100000101111001000010100111010010011110010000111001001010101100001110101111001011110110101110101110000100011000011000010111110111001100011100111101111011100010111110001011100010000001000010000000100100001000000010000100011000001000010000010111011001001111111011101100110000101000100010010000110010100111000110100100000011111010101110100110100100011100100100101110110000111010010011000001001000011100100000101000000110001111110100011110101011111
110011100100010101011110011010100000101001101011010010100110111111011000011111110111011011111101011111101111011101001100001011101010011111000100111000110001010000110101000000101010001110010000001000111111111010000111111111100000000111111001110100010010010010011100000001001111111110001011110100100101101010101010110001100101011111001101111011101101010011100011010101101010001111010100110101111101100101000101001001011000000100011000001100101100010000000111000000001111101110011100111100111111111100100011110001111110001111010010011101011000011000100010100011000111000101011110
001001001011001111110001110110001001001100010000000101111000000101010011111000110000110000101010100001110011111110100000101010100101001111000100011000110111010111010111111110111001111101111111111100101110110101010101001000011010001111011000111000101101011011110001011111011111101111110111111011111101000111111101110101101111101111011110110111101111001010110010110011101111001111011100101110001000001000111000100001011011101111011010001100111101010001100011110010100111110111010010011011100010001001011001001011000111011010101100101101111111101100111111111111111000010100111001
111111111101010011100110111101001111111111001111110011011010011001001010111010110010010101111110001111101110110100010000000000011100000100001000111101111111110000100011110101000010001011010000011011110101001001011111111101110000110011111111101110001001101010111011110000100110011101010000001010111101101011110101101111010101011101110101010011000010110100101100101010100010100111001010000010100101101010111000110111100011011111011001011001000011010111010101001111011100000000011000010001000000011000000011001010100011110111100010011001111101011111110100001001111101101101011110
010011100000010110110100011010101001101001010001011010011010101110001100011011100111110111111111111101001111011100100010001110100001010110000011010001100100100110100111111011001111001111010100101100111111111001011111111101110110110000110011001011010010101111111110110111100111111011010110001010101101100011110011111110000001001101110100011000010001110011011100100100011011001001111101110010111110011101001110010001011000001110000100101100000000000000000001101100100100010110011001010100011111111001110101011010001110100111001010000001010011011101011100011111101010011101101011
101100111110101000000010101100100111110110001111101100000000000000000011000000000101010000000111000100100001001000000000001000010001010001111001110111000010101100001010000000110101110100100011101101101111010101000100000001010001100100001010111000111100000000010011101000001000000000101000100011111100011101011101001101110110110000101011101111010010101101111000111001001011100101001010000010000101101010111001101110100011111111111011111000011011110001011100011001111110001101101000000101011011000010101000101111001010101111001110111001101101010001010100001110011000000010001001
110111100100011101011111011011111000110100101011000110100010011001000100000001001010000000011000011111001010110110110111111110001010001111010100001000010100011000011000000000100000101100000000000000000010000110000011011010000011001001110001010000000010000001001000000001101111000110010010100000010000010000001000000000101011000110000000101100111101010000000011000100000110000110111101101110111101101010010000001000001100001011001000011100101101010000000011000000000001011000100001111100011110110101000011010001111100011001000111110101101001010010101111110011000110000011010100
000011011011011110000001001000001010000110000101101000111101000011110011110001011100101011010110110001010010011100001000100000101110100010001011101100111111100011101010111111011111111011111101101000111111100000010110001000011010000110001000111000101101011001110110010100010000110000100011011111111101100000100010110100001110101111010110010111100111001110011000011010010100011100100001101010011000101011101111101101110111110001111010001100001011011111001010010011101111011011101010010101010010101010111100111111101101011100101000111100110110111000111101000011011000001101011010
101101111101111101110010110100000000011001000100000000110000000110000001000000010000110100101011101110101101101111111011110000000011000001010010111110110100001000110011100000000000000100000011000010101001000101011100101001110101110000111011110011001010111111111111100011100001101011000000001101111001010111100011110111000100010000000000100000011011110001101011110111011101111101110101100110010000101010110011110110001011001111010000101000111101000000111111100001011101111111111101100110110000101011101111110001001011111011010110001101111111001000110101111000101100110100101000
110000011010101101001011010111010000001001100001000101110100000010001011010101001101101100001100000010000001001011111110101000110011000000100000100000000000000000001100001000110001110000101111110101100111000110000000000010001000001100000000110000110111000100000010001111010000100000101101000101010010010100001010010000101010100010001010101100111101001000000011110101001101001011110100111001011010011100100011001110111100100000000110001000101000011000100010110000000001111111000010101000111101100111110100110101011100101100010101110111000110110101010100010111000010001110000001
010010110101010001111100010101100111111011110111010111000000011111011100001011100110110100101011000101100101010101001100001011011100110100101100110111000011111101001100001001110000000000001011011101110110010010100011010110101110001111010100010111111101010000011111010100000000000000001011111011111111111110111011111111111111101001011110011111101101111100011100001001110100110000001010010111100010010101111100101011110001110010010111000111001011111111001101101110111001110111101110011101100011000101011100001011001001000100111101010101000110110001010101001100010000010000101001
110101000010110100000000001010010000000100001000110010010000000001011101011101111110010110111001001100011100001000000011010100000010000100001000101100010000110011101001110101100101110001000110011010111100000101001111011000110000010001110011011000001010110001011010111111111011010100101011101111010111110101010011000010000001001111001000011000011001010000000011010100000000000000001000111011001010111111111111110011001010001011011000011100101100010000000011100000000100111100010001111100011100111111100010110101111101111100110100110101110000110010100101100011100111011111111110
000001000001100111011100001011110100110000111010110011010010101110111111111111101111001111011101100100011101000001000011010100010000110100001010010001111011110110101011010011001010001111000000111110111100001001011100011100110000110000101011101000011000100001101011010100100011110000000011001010101001000010010011011100010101011101110100001011000000110111011100101001010001110000101111000011010000011101001110010101010111110110101110100111010000111110010101101101101110001110101100111110000010111000100011110101010111011111011110111000110101011111101111111111101110101111011110
111111101110010101111100011111110010000010101000101100011001100011010110001111000111111011110111010111101011010101000100001000101000000100001010101000111011101011110111111111010001011111010111100100010010101100000011001100001110001111001100100100101101000011000111000111101111101111111111111010000010110010110011110110001111101111010110011111101111011100010111000010110101110000100111010010000111010101100011110001101000100110000100001101001011000110000001001011011010000111011000010011000010001000011001101011011011111011110110000011101100001111100000000010111010101101011011
011110101101001000110111010101010011111011111101111011101001011101111110101011110001110000101011111111100111100111111111011011111001001011011100000111100101010101010011101100010000000101010000000000000010000110100010110110101011001111001110100100101111010001101010111110110011111111110011010011010000011111111100101110111010101111011010110100111111011000110010110111001110000011100100000000111101000001000000001001010100110101001110110111001001001011011100111011111100111011111111011010111100000100010010010001011111011111111100111111111111100111010011110110000010101111111101
101100111101101010011110110001011100101111010010101010111001011111111111111101110000101011110110011011111101010110111111111101000000001001110100010000001000101001101110110111000001010000100001001100101100101011001011110001110101110000100011001011000000101100111001100010100010001110000000111111111110111101001100001001110000010000101001010011000000101110001010000010001111000111100100100100101101100001011100001001010000011100110001100000110110111001000100000000011101111001010000000011110101010100000000001000111110100111101000111000111000000110001101010101100010101111110100
011111111111010111001110011111111111110011111101111011000001111111111101100111111111111111011110001110101100001010000100010001001010000111010100001000111001000011000011001001000011000010101110010011010001011100001000001010111111101111011110010110101101001000100010010000110101110101110111010111000010010100110001101010011110101011111110011110101110000001000100001100010001110000100011000101000111010111101000110011101010110110110110111111000000001110111101011100010010001111111101000011110001010101001100101001100100100111111000000100000001010010000101000010111000111111110100
