8005FF78
8006FFF0
8006FFBD
8004FE88
8005FF47
8006FFD9
8007FEFF
8005FE15
8005FF01
8006FFB2
8004FF88
8005FE16
8004FE08
8005FF69
8005FE87
8006FFF0
0000FEC0
0000FE4B
0000FEDE
0000FE37
0000FFB0
0000FE1B
0000FEFF
0000FE92
0000FF33
0000FE79
0000FFDE
0000FE12
0000FE0F
0000FFBA
0000FED9
4F458003
0000FF59
0000FE6D
0000FFCF
0000FE80
0000FEA6
0000FF19
0000FFAF
0000FF14
0000FFA8
0000FFE0
0000FE90
0000FF29
0000FE00
0000FF90
0000FF04
5545808B
0000FF58
0000FF1F
0000FFBB
0000FEAF
0000FEB3
0000FF33
0000FEF8
0000FE55
0000FE27
0000FEBB
0000FFB7
0000FE2A
0000FE2F
0000FF39
0000FF58
5546809B
0000FEAE
0000FE80
0000FE99
0000FE0E
0000FF5E
0000FE10
0000FFFB
0000FFD8
0000FE40
0000FEFF
0000FE9F
0000FEDD
0000FED6
0000FE9A
0000FE6B
50448000
0000FEEE
0000FECB
0000FEFB
0000FE26
0000FF24
0000FECA
0000FE08
0000FF26
0000FFA5
0000FE66
0000FF17
0000FF3D
0000FEF4
0000FEF5
0000FE32
514580DA
0000FFCD
0000FFCE
0000FF3E
0000FE31
0000FE20
0000FECA
0000FF1E
0000FE00
0000FE87
0000FF27
0000FF82
0000FF39
0000FF11
0000FF00
0000FEA0
574A81EB
0000FF8B
0000FF1E
0000FE1C
0000FEE3
0000FE20
0000FFCE
0000FF4C
0000FE09
0000FE43
0000FF07
0000FE43
0000FE55
0000FF3F
0000FF09
0000FEC8
51468186
0000FEE3
0000FEFA
0000FE23
0000FE17
0000FF0A
0000FEE1
0000FE40
0000FE0E
0000FF60
0000FE25
0000FE07
0000FF2F
0000FFDE
0000FE42
0000FE1A
514480F1
0000FECB
0000FE4A
0000FEC3
0000FE0B
0000FF32
0000FEC1
0000FE62
0000FF17
0000FFA4
0000FE65
0000FF87
0000FF89
0000FE18
0000FED6
0000FF11
4E4380C8
0000FE8A
0000FE1F
0000FFF8
0000FE1E
0000FEE2
0000FF68
0000FE78
0000FFC7
0000FE87
0000FF20
0000FE38
0000FE85
0000FE17
0000FEC7
0000FE91
51448017
0000FFB9
0000FE00
0000FEDD
0000FFAB
0000FF77
0000FF08
0000FF96
0000FE31
0000FF39
0000FE9F
0000FF97
0000FEB9
0000FF00
0000FF20
0000FFB6
50458088
0000FE2F
0000FED9
0000FE69
0000FE57
0000FE36
0000FE40
0000FE08
0000FF85
0000FE4D
0000FE07
0000FEAF
0000FEAB
0000FEC0
0000FED7
0000FE75
4C408080
0000FFA5
0000FFDC
0000FE81
0000FE57
0000FE4E
0000FFA0
0000FFA1
0000FF5C
0000FED8
0000FE83
0000FFC6
0000FEEC
0000FF6F
0000FE44
0000FE0C
4F4481B4
0000FE5B
0000FFC8
0000FE15
0000FF0B
0000FE24
0000FF89
0000FE19
0000FE21
0000FF32
0000FE05
0000FF87
0000FE21
0000FF29
0000FF80
0000FFA3
514580C1
0000FFC3
0000FFCA
0000FFD7
0000FEBA
0000FE24
0000FF96
0000FE32
0000FE09
0000FE49
0000FFDB
0000FF83
0000FE2F
0000FE21
0000FFC6
0000FE83
534481B7
0000FF0B
0000FFCE
0000FF3E
0000FEAB
0000FE21
0000FF88
0000FFBE
0000FE01
0000FE83
0000FF47
0000FF02
0000FF28
0000FE23
0000FF11
0000FE18
574881CE
8108D277
8108402E
8108E072
8108C072
8108E46D
8108C06A
8108F93B
8108EF13
8108604B
8108E0C4
8108C80C
810839C8
81081650
81086D9C
81082892
81084026
8108F0EA
81080DAB
81081400
81082C62
8108A2EF
810882F5
81088E6C
8108CAE5
81081C11
81087D98
81089BD5
8108FA03
81085AF8
8108580E
81080800
81080B9C
810878DA
8108507B
81085898
810801BA
81382880
8138CC92
8138BF89
8138BF89
813839CD
81384F94
81385665
8138478C
813815DE
8138B77C
8138E457
81384626
8138ABFB
8138E264
8138D7EC
81383B9D
8138A755
81385644
8138AFEF
81385289
81385D98
81387D18
8138EE92
8138ECAA
8138E4EE
8138160F
81388E0D
81382FBD
8138EE9F
81389AB2
813811EF
8138B2EE
8138D76E
8138BB7E
8138B777
8138FE64
8131E679
8131812C
81311247
81311267
81315072
8131E066
81314D8B
8131C473
8131AA4C
81318AC6
8131F2EF
8131BC72
8131BF94
81311EB8
8131CD8B
81310FBB
8131FDA0
81313081
81315F04
81312213
8131A26E
81315BFF
81310F9D
813149DB
81310393
8131D3F0
8131DBF3
8131736F
81317870
81314045
81310EC0
81314F9C
813140AA
8131508B
81310098
813101D3
80F8E77F
80F8437C
80F85165
80F84633
80F89662
80F8802A
80F8B5BA
80F81142
80F84022
80F8E863
80F83B40
80F81998
80F804C0
80F8299A
80F82C12
80F8E4E3
80F8192A
80F899B8
80F80480
80F82DF7
80F8A267
80F892E7
80F88A6F
80F80256
80F8A991
80F8E1B4
80F839F0
80F87042
80F81A61
80F8705D
80F84A50
80F80D1B
80F80911
80F80109
80F81998
80F8019A
80F8C677
80F8427F
80F85164
80F84576
80F8F71B
80F8F269
80F8ED73
80F8C34B
80F80290
80F8A5A8
80F81900
80F83998
80F8B240
80F85E99
80F8281A
80F8C422
80F8148A
80F82D99
80F81E00
80F8B476
80F8E267
80F8C267
80F832ED
80F834D5
80F88111
80F893F5
80F83BF2
80F854C6
80F81F51
80F8714C
80F80640
80F85D1C
80F81C00
80F84009
80F81918
80F80190
8118DFF7
8118AAED
811828F6
811848F2
8118BFFB
8118A8E3
8118BDD2
8118385B
81186200
8118E896
81184380
811839C8
811894C8
81183D9B
81186412
8118E462
8118DC2B
811835B8
81181498
8118AD76
8118A267
8118826F
8118976D
81182A57
81181B19
8118A5F0
811871F2
8118D066
81181969
8118C01C
81185A59
81185D18
81182A8D
8118428D
81185ACF
811857D7
81443980
81443E93
8144BF89
81443989
8144098A
81444D9A
81445265
8144574C
8144B5A5
81449576
8144A7F7
81444E67
81446BBF
8144F665
8144BBFC
81443B9C
8144E275
8144E247
8144FBFF
8144DBC9
81445D98
81446D98
8144EE10
8144D83A
814466EE
8144164B
8144840F
8144ADBC
8144E49F
81449EEA
8144F9FF
8144A2FB
8144F36D
8144BFF4
8144EFE7
8144FE67
81330000
81335013
8133B61B
8133B649
8133917C
81336754
81330265
8133568C
813335EE
81337771
81337DD5
8133C647
8133EBB3
8133C567
81331BF4
81333F9D
8133A655
813356C6
8133EBE3
81335F88
81335D98
81337D98
8133E991
8133DB3B
8133FDE6
81330E0B
81338C0D
81332FBD
8133E58E
81338EFA
813365A4
8133F2EE
8133D17A
8133BD6A
8133B520
8133A820
8101E677
8101332D
81014064
8101407A
8101B651
8101A46F
8101FDB2
8101A97A
810162B9
81014857
8101AA8A
810139D9
81011044
81013D9B
81012C12
8101CCE3
81011FAA
810135B9
81011090
81012477
8101A267
810192E7
81010AED
81012247
8101BA11
8101C1F0
810171F2
8101D042
81011178
8101F907
81015A00
81015D18
81010C91
81014089
81011908
81010193
81270B82
8127FC92
8127BF88
81271F88
81277F98
81277F98
81278084
812750A6
8127BDD4
8127B71D
8127E5FF
81276AA7
8127A1FB
8127A2E4
812713F5
8127135D
8127E364
8127DA47
8127AB7F
8127D28D
81275D98
81277D88
81277092
8127FCA8
8127946E
81271E4F
8127AC0D
81272FBD
8127E78F
81278EBA
8127A5BF
8127E6EC
8127F77C
8127FF64
8127E7E7
8127FE2C
81442988
81443E83
81449F89
81443D88
81440982
81440ADC
814457CD
81441C34
814455F7
8144156F
8144EFFF
81444667
814449BB
8144E674
814453FD
81443B5C
8144E5B5
8144E666
8144FFFF
814458C8
81445D98
81447D98
81446893
8144DABA
8144A46E
81442E7E
81448C0F
81448DBC
8144AC3F
814492E6
8144F5BF
8144F6E3
8144F777
8144BFE4
8144EEE7
8144FE6D
8124C667
8124977D
81247711
81243719
81247609
8124B469
8124499A
8124FCBB
81246D59
8124AE6F
81247F2D
81243D98
812442D4
81249C3B
8124C8B2
81244C82
8124B91A
8124B199
81241186
8124F6E7
8124E667
8124826F
81248366
81240B1D
8124AAF3
812401E6
81247BF2
8124F066
81241868
8124F053
8124E784
8124671C
812440C9
81244089
81241898
812401FB
812819C0
81287C92
8128BF8B
8128998D
81284984
81285F91
81280265
81285627
8128B795
81289760
8128673B
81284227
8128E9BB
8128C2E4
812813EC
81283B9D
8128E655
8128DF46
8128EFFB
812842C8
81285D98
81286D90
8128EE12
8128DD3A
8128A46E
81280A4B
81288E0D
81282FBD
8128E7BF
81282E99
8128A9FF
8128F2E6
8128D3EC
8128BB7C
8128B777
8128FE66
814E3984
814E589A
814EBF87
814E1F89
814E49AC
814E1FD6
814EA0C4
814EEC27
814E9D9E
814EB7BC
814ED17F
814EC667
814E4FBB
814EC065
814ED3E4
814E1FDC
814E2A75
814EC646
814EE9FF
814ED649
814E5998
814E2D18
814E4410
814E3938
814ED76E
814E000F
814ECC2D
814E0FB9
814EE4BF
814E96E3
814EF8FD
814EB2FF
814ED2EE
814EB3EE
814EA66F
814EFE67
81343205
8134A503
8134E708
8134A208
8134D162
81340704
81343645
8134798D
8134FDD9
8134371C
8134D75A
81344686
8134DE77
8134E056
813493CD
81341B5D
81340DF5
81345F85
8134AFF7
8134D28D
81345D98
81347C88
8134ED30
8134D078
81348766
8134264E
8134A409
8134AFB1
8134AC37
8134BAB6
8134A5A4
8134E2E6
8134F8FB
8134EDEA
8134E5A8
8134A86A
812A3982
812A3E9B
812A0D98
812AFD98
812ABF84
812A5FD8
812A97E5
812ADB96
812A1D1C
812A771F
812A2880
812A7394
812AB57B
812AF455
812AB6D4
812AD224
812A404F
812ACFF6
812AE9FF
812ADDED
812A5D90
812A6D82
812AE673
812AE27E
812A606E
812A6C0F
812AAC0C
812A8899
812A879F
812AA7F2
812AE1BF
812AB266
812A0365
812AFF74
812AC767
812AFE2C
811BDCBB
811BAAED
811B58F6
811B48F6
811BFAFE
811BAAE7
811BFCBB
811B2B90
811BA242
811BEA53
811B1A48
811BB018
811B5448
811B1F9A
811B251A
811BC4E2
811B594B
811B0539
811B041C
811B8676
811BA267
811B9267
811BDE6D
811B2277
811B6A99
811BE1F1
811BF3F2
811BD042
811B1841
811B6815
811B9CC9
811B5114
811B0B15
811B4A85
811B1BCF
811B7637
80F9C67F
80F91268
80F9C063
80F9C27F
80F9E225
80F9A023
80F9AC3A
80F9CA00
80F9022C
80F96284
80F93104
80F934C8
80F91C01
80F92F1D
80F90CB2
80F9CC23
80F955CA
80F91C99
80F90400
80F91504
80F9A267
80F9C277
80F9434F
80F9AB4F
80F90B31
80F93B94
80F991F2
80F99046
80F91868
80F9511C
80F91A80
80F95D1C
80F94D99
80F9588B
80F95018
80F901D3
8113FEFD
8113AEAD
8113ABF5
8113CAF6
8113B8F6
8113AAE7
8113718B
81134C9B
81130002
81136093
8113DA86
8113A108
8113A058
8113DFBB
81130C1A
8113A213
8113C263
8113A239
81130598
81138366
8113E262
81138276
8113E9E5
81130206
81132999
8113A1B1
8113F3C6
8113B046
81131BC0
81133D11
8113581B
81131D50
81130E85
81135B85
81131B47
8113561E
81451988
81450898
81452F98
8145B989
8145BEF3
81455BF5
8145924C
8145044C
8145F467
8145D7E9
8145FFFF
8145E6B7
81454FBB
8145E077
8145F2C4
81455300
8145301E
8145D767
8145DF6F
81456080
8145399D
81450D0B
814587A3
8145FC7F
814565EC
8145DA4D
8145AC3D
814543B6
8145EE26
8145E6E7
8145E599
81458AE9
8145C6FE
8145F266
8145B7F7
8145FF44
81281100
81281518
81289708
8128B719
81282709
81283310
81284244
8128D777
81289DDA
8128358D
8128491F
81287E97
81282AF3
8128F667
8128935D
8128B25D
8128C275
8128D6EE
8128EB77
81284548
81285D98
81282D90
8128F032
8128F628
8128E464
8128AA4F
8128A60F
81288DBD
8128EE96
81288FFB
8128A9B6
8128F262
8128F5E3
8128A172
8128E530
8128A868
8110F67F
8110226F
81102076
8110D076
8110F474
8110A262
81103DCF
8110ABDA
81104A65
8110EAA3
8110E1AA
81109DC8
81105242
81100A9A
81102C12
8110C482
81105DAB
8110292B
81105480
8110A577
8110A267
811082EF
8110D6E5
81108257
81100B91
8110F1B5
811031F2
8110D042
811018C8
8110E055
81105C50
81101D99
81100899
81100889
81101118
81102073
813A0990
813ADC90
813ADF98
813A1D88
813A5989
813A7F98
813A0044
813A1044
813A1D95
813ABCD9
813ADDBF
813A6717
813A687B
813AE0F4
813A936C
813A1BFC
813A65BD
813AE647
813AE17F
813AFAC8
813A5D98
813A6D88
813AE533
813AAC3A
813AE66E
813A9E6F
813AAC0F
813AAD3F
813AA73E
813A86FB
813AA9BF
813AFEE3
813AFBE6
813AFEF6
813AE6F7
813AFE24
812B0B80
812B2F92
812BBF89
812BAA89
812BAB8D
812B5FD0
812B8604
812B5747
812B154E
812B1038
812B4975
812B4E67
812B29FA
812BC474
812BD7DD
812B335D
812BB6F5
812BDA66
812B8DFF
812BD125
812B5D98
812B2D18
812B6890
812BFDA8
812B2ECC
812B4859
812B2E0D
812B2DBD
812BE59F
812B8AF2
812B591F
812B8B7B
812B92BF
812BBF76
812BA767
812BFE64
8147733F
81478006
81472704
81478000
8147303A
81476774
8147E665
8147C0A6
8147D7FF
8147B777
8147B12D
8147EAF4
8147FA77
8147C7F7
814733D4
8147F11C
8147DFC4
81473384
8147EF77
8147C16A
81475D99
8147ED03
814790AB
81475FBD
8147E5E6
8147106E
8147A42D
8147EBFA
8147619E
8147AA7E
8147EDB4
8147F667
8147F5B2
8147FCA2
8147F420
8147A868
811BEEBF
811BA9E9
811B48F6
811B5EF6
811BBFF3
811BA8A3
811BFCBB
811BEBB8
811B28F1
811B4872
811B98CA
811BB998
811B5A88
811B2C9B
811B2492
811BCCE2
811B7BAA
811B219B
811B4008
811BA73A
811BA2E7
811BD26F
811B82ED
811B265E
811B4999
811B81F1
811B71F0
811BD046
811B18F1
811B4D0C
811B0649
811B1D9D
811B2F87
811B429F
811B5B5F
811B57DD
812ADCFD
812AD8EF
812A58F6
812A68FE
812AC8FE
812AAAEE
812AADB9
812ABA94
812AE2BD
812AEA6B
812AF3D0
812A31D9
812AF00C
812ABD9F
812A8932
812A84E6
812A5D6A
812A3D99
812A6718
812A66A7
812AA2E7
812A83EF
812AD667
812A9E57
812A8A39
812A03E7
812A9BF2
812AD243
812A19C0
812A6D45
812A0EE9
812A7D9C
812A6FDD
812A4A8D
812A5ACF
812A5797
8100E22F
8100C468
8100F47F
81000066
8100A472
8100827A
8100642E
810082D6
81004262
8100CAC3
81008A8A
8100B8D9
81006001
8100BA28
810048B2
8100CC23
8100181B
81003499
81002400
810007BC
8100A266
810082E7
8100D6EF
8100B498
81006053
8100FD95
8100B3C5
81007AC8
81001BC9
8100391C
81005246
8100099E
81000D10
81000D59
81000150
81000810
8110CFFF
81105AF3
811048F7
811048F6
8110FEB5
811098A3
8110AD9A
811037F6
811043C6
81104BF2
8110C088
811039C8
8110144C
81103DA9
81102D13
81108063
8110C08A
81100D98
81100008
811024B6
8110A267
811082E7
8110A8EF
81102BD6
81101399
8110B994
8110DBD0
8110F642
81101A69
8110156D
81105A09
81104D10
81106FD5
8110631D
81104AC7
8110579F
813C19D8
813C5D92
813CEF89
813C1F89
813C3B81
813C7F99
813C80A8
813C546D
813CBD52
813C3D50
813CFEF7
813C66A7
813C6FBF
813CC444
813CD7ED
813C3BD9
813C1355
813CDA65
813CC36F
813C5380
813C5D18
813C3D08
813C3910
813C79B9
813CCF6E
813CCC5A
813C660D
813C4D9D
813CE7BE
813CBFAA
813CA3FF
813CFEE6
813CF736
813CB766
813CA777
813CFEEC
8118C77F
8118F76F
8118E66F
81186577
81180045
8118B02E
8118FDDB
81180F22
81184A42
81188822
81188C28
81185DD9
81184680
81183C9A
8118A082
8118C4E2
81187CB0
81188DB9
81184480
8118AE32
8118A2E7
811892ED
8118256F
8118005C
8118DB91
811889B0
811819D0
8118564E
81183979
8118F555
81184A02
8118090C
8118181B
8118000B
811801C8
811809D3
8103873B
8103372D
81034073
81035267
81039477
8103A06A
8103098A
81032B98
81034249
81036AB5
8103BF8C
81033D98
81031400
81032D98
8103AC1A
8103C023
81031D8A
81032D38
81031C80
81030877
8103A267
810392FF
8103FEED
81032644
8103CA53
810359B1
810339D2
8103D243
81031BC0
8103F105
810386E0
81034484
81036081
81034091
81031990
8103019B
8010F6C2
801021D8
