101000001110010000101001000011110101010110110100111100111110100110111000011110010001100000110010010111100110010001000011001000011101000111110000
110010011000000000011011011000111100100100001100001011110010110100000011110010011010001111100111100110110110010111101000001111010011110110000111
100100101000000011010000111000001100001001000001011001001101000101000001100100100110000000001101000001001100110000110100111011110010101001100011
010101000011100011011001000110000100100010001000001100110000111010111001110001011001101110110000111110000110001100011011001010011111011110000011
000111000011100011100010001101000111000000110000011110011001010000011010011011110000101100110000011111011110000101011001001011000010001011001110
010110011001111101001011110110100001100101101000000000110100111100111011110010001000001001110100011110100110001111100001000100011011111100100001
111100000001111011011000000101101001001011000001011100000101000011100000101001000001100111001111001001111100000111011000011100000100110001000000
000001011001011010001011001101000010010110110110001011110100010110100111111110011000011011011100010110100101001001100001011001001001010101110010
011111101111000101110110100011011011010011001011011110001100011001001000001001000011111111001110011011110011111100110001101110010000110001001000
101100100000110111100000110001101000001011000001001000001101101001000000000101100110000011001001101001001000000010111100111111110010100001000010
001101010001100110001100110000000011010011011001010111010000011010001000011001001001111110000000001111011011101100110001000100001001110011001000
110101000101111000110100111001110011111001000011010100001101010111101010001110000010000111001110001001101101000111011101110100000100010001100110
010000011001100001000101010111110000010110000000100010000111010000011001111000000000101111011110100110010010001001101001110000000110110010010111
001000011001001101010001011111011110111010110000111100001011001011000001001000110110001101111011110000001000011101011001001111000001111001001110
111100001111000110110100010001011011011011001110000011001111001111001001001000101100110100101111011000111011100110111110000111100000111001001000
001011011001010101111101110100100011000000011110001010000110001000001111001001001101101001100000011000111011000000010000001000001100010010000001
