101001100101010010011001100101010011111001111010101111000010110010010101010011111001011100001110100010111010111101001101100011001011101110100101011001001101010001110111101010000000000000101100110011001001101101110101111000001101101111100000011100000111101101000011000011101110100101010111111100011011100010110010000000010011100101111101011110001111100010111011111101101101100000011000001011100111111110000000000010110001101101000111110001111111011101000000110001110100110001111101001101000000111010100010110000011000000100100000101001111001010101011111110101011110001011100101
111000110101000011111111011101001001001111011000001100100001011101101111001001001000001100101100100101111011101100011000010011000011001011001101001001100010000011011010010000000100001110011001100011100001001111101110001110111000000011000011111010000111111010110011110011011010011100100100101000001010000110010110110000001100001100001000101100001100100001010001100110101110000110011100011011000101001110111000000011010111110000000010000110001000101100000001010011001100001101111000101010100111110010011001100110111100001100110000100000000111111100000011000111011100011100100101
110000110011010001010001011101001000011011001100001101111100010001000010011111000001001110001110111111010011100111011111010011010001001000100111100011111011110001100000101000101111001011110011011101111000110001000011110001000100111110100001000000111110000011110011010001100000100110011011000001000100100110100010010101001000000011001100111110111111011101010011001111101100000111000011001100000111101001010111110011100001001000101111111101001000011100101110100001000110000001001001011010100001000011011011010011101100111110000111010000101000100111111111000011101101011100100111
011110001100101110101110100001110101011001101111100010000110100110111111100010100110110011010011000001111100011111000100101100001100010110011001011110001100101100101111100110011000111000000100100100010111001111111010110111111001101000011110111111011000001110101100101100011111111001100101111111111001011001111000000010111100010001010010000001000010100001111100010000011001011001011010010111011000110010110011101100011110110111111001111100111010100001011111111110110011111010110011000001011110011100101100011001000011000001011000100110011110101110100001011110100001000001011000
001110001100100110101110110000101100110010110100100010000110000110111111100000110110110011110011010000100100110110101100101100101100010111011000111110001100101100111111000101101000100100000100101111010111100101111110110010110001000000111110011110111000001110101100101110111111101001100100111100011011011001111101010011011100010010110011000011000001000011111110110010011001011001101010000010111000110001111011101101011110010110111000101100110011100001011111001100110011111110110111000001011101111100101110011101010011110001011010001111011111011011100001011000110011100000111110
100011010001000010000000011001001001111101011100011100111011111110011001011000010100001100001111111111000100000100000010000100001000011111111001001011000101010011000000000001110001110100000111101100101000001111011001011111001001001110000011011010000000100011010111000010100000011001000000011111100100101100000000110011110011001101101010001100011111111111000110010111100111000100000001010011011000011101001001000110100000010000000001011010000110011100101011110110010111011101000111011010110011100000000010111110111100011101110101110011110010001101000110100110010000111011111010
011110001101101110101110100011011111010010110111110001100110101110111100100010100001110011010001000011100100011110100100101001110100100111010000111110001101101100011111100110011000111111101100100010010110001011111010111110110011001101011110010111111000001100101100111100110101101001000000101111011001011001001100000010111100110011100111000011000000100011011100111111011011011000111010010010011001111111001001001101011110000011111010100001010010100000011101001110111110100110010111000101001111011110100101100000000011000001011010000110010100101000100001001010100001000001010000
110000111000111000000000011110111000011000010100101100101011101100001100011101000001001110111110111110010101001100101100111000001000110111100010000100011011010000000000110100110001011111010100001100000001111011100100011000011111110110000001010100100010110010011000111010000000101101101100001100000110110101000001010111101011010101000100001110111110011100000000000111000101110110001111110010101011001110111111110010010000010001110110011111001100111110010000100001001110001101010000111100110000100111111101001110100100110110011001010100000110100100110011000001001111111101000001
010010000100101101101100010100010100101100000111110011000000100001110110100110100010111011010000110000110110011110000110111101111101000000100110001100000101001111001111011000011000001110100110011111101100100100001110111100011000001101111110011000111000001100001100111101111101001100010100111001111101011111011110011011100000111000001010010011100000100000110100010101001101001100111010110001110100111001011000101110101111001110111000110110000010010001000100111100010110111100001101100101111111011110100100111111000011011011100010111011111011100100001110101110010001100000111001
011100000011001101001100001110100111100001110110100010000110100101010110110010101111100011100011100001010011011000000110010001001101100111110011011000000010001111001111011111110001100110000001001001100101110101100011000001100111000001011100001011111001001100010010001101001111101111110000110101111100011011011011011010111000101001011111100011100011100001000011010010010100011011011001110001100101011100100011100001001100011011111101100000010111100011100001001101001111101010100001100111001000011111001111000001011111100011011001110000010000011000100101011100011110110111110000
000010000111010011111100111100010110110110100101010010001110000001111111110010111000111001100001000001101010010100000001000001110110111110001110101110000101001110101110111010000110000110100101100011111010000101010110100101000101000011111110111000011000000011001011110111111111011101010110001101111110101110101110001010100101110011011000010000000000100011111000111101000111001100100001001001100101101001001111100111001110101010111100100010100000110001001111111000110110100110100111000101001110111000011110110000110000001000100110000010011001000111000111110100111000001010100111
100001010001011101001111010101111000101001000001101000001101010001001010011110000100100110100110011100011111101011100111111101001101011000101000000011011011010111001110011111100100101001100001011101000110110000101100000011100111110011110111000001101110100001011001011011000110101100101000101010110011110010010101111000100010010100100101100111111101011100110111011010110011010001011111101001111010011101000011010011111111000101101110100000000101101001100000000111000111100001001111110010110011000111001010100010111101110001111001110101101101101010011001011111001111111101101000
001111001110111100101110100001001111011001011111100001010111100111111001101011110101110001110001000001101100010111000111101001000110100110011000111110001100001101111110100011001110111101101001110011000110101101110001110111101000011000111110001100111100011111111100101101011111110000110000111011110001111001101100010011011111011011100001100001000000000001011110001001011011011001011010010010111000010011111000001101001111101110001100111101110110100001011101101110110000011110110111100111111110011100100000000001010011000001011010100111011111001111000100011000010001000011011010
111011110001010010100010010001011000011111001000011110011010011110000001001000001100001100001111001111100100111100001111000010101010101011101000111111100101010011000000000101111101100010101000000000011011100100100000111111000100011111000011011001000111101011100001000010000010010100101001101111000100100100100100000001001000010100100110101100001111111101001100110111100110100101000100001011111000001101011111110010100000000001000000011010000000111111111111010110100000011110000000111111110010110000100011011110101000111100100111110100100111111111110011100100011010001011101110
100010011001100001101010011100100000010100001010011101000001101001111111001001001010001110001100101010110111010000101000110101111101011100010011000000010001110011100101111100110000011100011001101110001000000110110111010001010101000000010011110010100011010010010001111001101110001110011100100000101001000111010111001110011100001100001111001110101110011010110001100101110011100111100110111101001011100000000101000000100011101100100000010000001101011110000000100010001110000000000001011000100001110010110100101000111111001111110000011011011110000100011011110111101111010100011001
000010000110000110000100001000010101010001010110100010101011100110001101101000000001100001110001100001010111100100010100100010001001011111001110101100000100001100001010010101001000000100010100100010101000001010101111001001010111011100001111111010011001000010001110001110000101011011100001010001101101010100001001011110101010010011001100100001010010000111001000000000000100010110001011010001011001011100010111111100001000010010011011100000010111100011111101001011011101110100000111100100101010001010110100000101101101110011011011110010010010101001001100000000010100010000000011
101101101101100101011111101001000110001001111101100010011100101110111010000100111101110001010010010000111100100001001101101001000100110110011000111101101101001101011110100011001010011001011010101100010001101011110000101010111000001001101111001101000000011101101100101101011000101000100000001010111110111000111010110111011101010101011111110011001010010111110110011010011001110001010000110000011000011111101000001101101011000010000010011100111111000000001111001110110010011100110101000101011011001110100100011001011011100010001111000111111101011001001011101110110000001110011000
000000110011000100111110000100111001111110000010111101100000110000000111111110000011000110101101101000110011110100100000000110001010000000100011000001110010110000110101111100110011011100110011010010100110100010010011110001101101110011110000110000101111100010000101000010100110000110011111100001100001110110010001010101110001010110010010011100100101110000001001111001100001011100100100111011101011000000100111100011010100111100111011110011000001111111100000110000000100110010001111011000000000110000011001110001100101011100100000111000110000100111011110110001101111011010111011
011101111100001101001111100000001110111111100011110111000000010011010101110001110010100011010001100001011111101111001110011101001111010010100001101100101000101111011111000010001010011011110101010101000101100000000100100110111100011101111101000110010100111100101100011101010110100010100010011110011000011001011110000000001111101100111001000011100010101000011111010000111000111011011001010110000100001111111100101100001111001110000010111111110010000011101100111111110001110111110100000101101111001110000111011011010010100010110010111111101111111100011011011001110000000010101110
100010111000000011001011111110110110100110010110011101100000000000000011010111010011011110101101000100000011000110111110100110111010100000100011100000111010010010000001011110111100010110111011011011101100110001110011000101101110010111000010000001001110101110101100010010100011110110111110101000010001101110000101011000100000000110010101101110110101011000100001101001110010111111000101001010101001010000100110010001010101010101100110010111101101111110110000000001001100100011001100011000100000000011010110110111110101101101110000110001110000101100010011000101101111010110001100
100110111000110000100001011110110000000100100001101101100011001001001110000111000110001110111110010000000011001010111110011010101000111101100110010100010000010000000001111100110100000110011100101110100000001000100110001110010101110010000001000111000000000110111000011010100011001010111110000110110101010110000101001111101100100100101100100110110110011000100001001000100000010100001111101100100100010110110001110011000011010111110100000111001110111110010000000001001111000100011100111000000011000111100100000100110110110100011001010111100100111100110001000101000111111100100000
010100001100110100111010110000011000000000010111011100110101101101111010111110100111001001010000101100110110100111100001101100110010010101011000101100001111101110110000110110011000110011000111101101011010111100011000100101001111011100111110100001111000110100101110110100010000111100001000111011011101101111100000010011110000101001001011001011101010001111010100100011010001011111100010110000010000111001000111111101101010110011111000100101010111000011100111110111110011100010000111001011111000100000011111000001001011101101001110010110110111101110001100111110110001111001011100
000111010010111100000100100010111101011011010000000001101110100110001100110000000100010100110011110111001010011111100000011010100000110111101010011100010100101100001001111100011001101110000000001000000001111110000101001110110011110110001101011100111001001111010000101110000111001001100111000110100110011010001001000111101101001000101100110000110001000111001100010100000110110000101011011001100111001110011111111110101100011010011001101110000000110000011111111000001001011110010000110111111110011100001101001110000010110010011011001011001110011111100001001000000011111010110011
000110010101100000111000010100000010100000111100001100101111011000101001110000011100000110001110101111110000011100001001000010101000100101010000011101011111100000100000110100010101000100010000000011101111011100101010101100001111100110110000110011100100000110010111110010111001110100001111110101101111010111110001100110010000111101111100000100011110010111110000010011101101000110110011100100010111010100000111100011110000110000110100110000001101111110001111110001111100101000001111111000000100100000110001111000110100011100001111100010011000010101110100100000001111100100001001
000100011100100110101100001011000111001001101111111001000010000110101100100010111101110011110011000011101100110101010010011011100100100111011111011000010100101110001011010011000011000110001110001010111101001101011101010100011000101001001001111111111001001100111010100100001101001011010001000101111000001001111001100010011011010000111111110011000000000011101100000000101110011000100011110011001111010010011000100100001100111011110001000101111100110010000001011000011000011011010001100101001001111000111011011001110011010011000001100001010010011001100110011000111011110011010011
001110001110000111011110011111100011100010100111100001110101000010001001110100110110100001100000100000000011011010010100001100110110010010101001001000001010001110011110110011001101110100000000101111010000001111000011100111011110000001001100111000011001001100001000000101011111111100010101101011111111001000001110110100000111110011110000000011100000100101100101010010010010001001110100110000001000010111011110001101001110111011011100100100110010100010111100101101100001101100100110000111001000011101010111010010010011000000111010100000100001110011000001001110110101001010100100
111001010111000011110011111101001001100000111100101010101111000101111010011101011101100100111110011110011001101000010111010111011001011101111100000011111111010001100001000101001001010010110011100011111000001110001110100001101111110110100001110101000110110011001111100000000000110110001101100011100110000110110001110110010011000101111101111101011111011110011011100100100110100111110111000101011111100001110101010111110001111000001111100000101111101110110010000001011010100001011110111011000100000001001001100100110101000100011110100110101000110011010000100011011101001101000111
000001010010000011100001000101011010100111100110001000011011001110000101011100010010001101011101001111000110001011100100000111111001101101001101001011010011000111011000011101101101110001000100001011100010000100100110010111010010001110000111101001001010000001000111000011100000000101001110011011101110101111000101101001011011101101000010011101011101111011100011010011100101001111101101100001110100001111010010110111001111111000001100011010100110011101010011000011001110011100010001001010000111001000010110001110111010011101101011011011110011001011111110000111101000001001100101
011001010011011111001111011101101011111111100111101111000010100001000101010011100010100110000111100010001011011011110000010111011111000000101001000001010110010111011010111011111011011101110111000000101110000001001001100001110001100011100110001000101111001011011111001011001100010101011101010001100001101111110001101001110010010010100010100101100101111010101111100111100000011101101111111100101011000010011100110011100110111000111111100111100001111111101001110001000001100011000110111011110110001001010011110010100001010101110001111001000010010111111100111011011000111111101111
110000110111110011111010011101011011001101111001111000100111011111001111001111001001001000001101101011111110100100110011110111100011001110011111110001100100111111111000011101010101000100110010110011101011001101001010000100101111001110100111110000011111110000110011100011111110011110000001110001000100001110111000110010101101100100011011000100001101110011111111101001101110000100110011100101011111101000100000100010101100110001011111000011101100111001100111010000001110010001101000100011000110100110010000000011111101010000100001110010001001100000100111101110111000011101000111
101001111111011010111000111100000010000100100101011111011111001110101010001111010100011000101100011111100100100110111110111101111010101111001001111111111111110111110000001000110000011010111100010111111000101110001000100110101100111111010011111100000110111001101111010011101000011000001111111100001110101101110110110010010111100100111010011100001110010110010000000111100110100110010011101001011110101100100110011111110010010001000110011011100000011101011111110010101101110100101000111110010111010010010000111110111010011101100110000111010001011110011111110111011000001000101110
001111001100101100001100100000100100110011100111110110010101100110111110100000110110110011010011100000101100101101000000001100110100110110011000111100001001101101001110110010010010011101101100100100010100101100011110110011001110001100111101011111010000001101001100101100011100101001110000110000011001011001011010000111100111100010110010010011000010100011011100010010011001001000111001010110001000110111011110101100101110000011010000101100110010000010001101111100111111110110110101100101001011011100110000010001010010010010101110001110100111001101001001001000110000100011010100
