:100000008005FF178005FF708006FE288006FEF839
:100010008005FEDF8006FECE8006FFD88006FFB793
:100020008006FF758005FE1A8006FFF88005FFEB4D
:100030008006FFC08006FFE48005FEC28006FFF751
:100040000000FF410000FF900000FF480000FEF5A7
:100050000000FEB60000FF3C0000FFF40000FFB807
:100060000000FEF20000FE600000FF920000FFE6CC
:100070000000FE880000FEC80000FEE8514481F048
:100080000000FF930000FE000000FEDB0000FE3CCD
:100090000000FF210000FF0B0000FF960000FF039F
:1000A0000000FF930000FE8F0000FF3C0000FFB641
:1000B0000000FEBD0000FE0F0000FE9E4E46818740
:1000C0000000FF250000FE030000FE870000FE0C7C
:1000D0000000FE480000FE590000FE680000FF41DD
:1000E0000000FF240000FF800000FE680000FE4CBE
:1000F0000000FF860000FF3B0000FF955046806334
:100100000000FEA80000FEE30000FEC80000FF841F
:100110000000FF110000FE0C0000FF870000FEB988
:100120000000FF8B0000FE6E0000FF870000FF86CE
:100130000000FE630000FECA0000FEFB5247818300
:100140000000FE380000FEE30000FF110000FF4742
:100150000000FE060000FE1E0000FECA0000FE1A9F
:100160000000FEDE0000FE2C0000FF830000FFDE2A
:100170000000FE2B0000FE4B0000FE11524580CE19
:100180000000FEB30000FE7D0000FE5E0000FFA147
:100190000000FF2D0000FE000000FFA70000FF3B55
:1001A0000000FF910000FE090000FFA30000FFA671
:1001B0000000FE7C0000FE440000FEDF5449812167
:1001C0000000FFE00000FE7B0000FEC00000FF69B1
:1001D0000000FE580000FE5C0000FE280000FEE06B
:1001E0000000FF480000FE670000FE790000FE7C72
:1001F0000000FE3B0000FE1C0000FE26554680402D
:100200000000FE0B0000FE5A0000FE590000FF42F5
:100210000000FEB60000FF8B0000FFA20000FFA759
:100220000000FFF30000FE1B0000FEE20000FFA53F
:100230000000FE4C0000FE590000FE4A5346817249
:100240000000FEFD0000FFC50000FFB40000FEDB63
:100250000000FE990000FEDE0000FE630000FE4884
:100260000000FE480000FEFF0000FE730000FEF3E9
:100270000000FFE60000FE6E0000FE86514580484B
:100280000000FF640000FE370000FF060000FE686B
:100290000000FE580000FE480000FE6D0000FE4019
:1002A0000000FE2C0000FF830000FE4D0000FE4811
:1002B0000000FE170000FF3F0000FF945144804201
:1002C0000000FE6A0000FE660000FE660000FE03FD
:1002D0000000FE9B0000FE570000FE830000FE8829
:1002E0000000FEC90000FE7E0000FE010000FFDBF2
:1002F0000000FF660000FE440000FE4E574A80C822
:100300000000FFA80000FF780000FFA70000FE73B8
:100310000000FFC80000FED40000FE6A0000FFEAF3
:100320000000FE700000FE870000FE710000FE6D00
:100330000000FE3B0000FF740000FE225044806677
:100340000000FE830000FE610000FE2A0000FFF0B6
:100350000000FEB00000FE220000FE3A0000FE1980
:100360000000FFC00000FE2F0000FEF40000FF921E
:100370000000FE4D0000FE700000FE3654478097DE
:100380000000FE430000FE4D0000FE8B0000FFDE7B
:100390000000FFD60000FE3C0000FE590000FEC138
:1003A0000000FE460000FF8D0000FFDE0000FE089A
:1003B0000000FEEB0000FE4F0000FE0F5044804E98
:1003C0000000FFE10000FFC60000FFA20000FE5B8E
:1003D0000000FED90000FF830000FE790000FFC985
:1003E0000000FE450000FF340000FF7B0000FE3BE4
:1003F0000000FF370000FF870000FF074D418048E5
:100400000000FE5B0000FE550000FFEE0000FF2331
:100410000000FE030000FF8A0000FE310000FE0F16
:100420000000FE490000FF690000FF030000FE3BE2
:100430000000FE020000FE080000FE6255498081B7
:10044000811F7FCB811FFD5E811F0DDB811F8F8888
:10045000811F0804811FB69F811F3627811FF30665
:10046000811FF77E811FB679811F9182811FB7DDC1
:10047000811F856A811F9235811F3246811FF24696
:10048000811F0BEB811FB0FA811F49D0811F8D1195
:10049000811F86AD811F8294811F839E811F0A392F
:1004A000811F7ABF811F3042811FEC78811F08E9CC
:1004B000811FA61E811FDCA1811FF62C811F53A75F
:1004C000811F4204811F9CEA811F2FC5811FCFEB32
:1004D0008110C589811080818110ABFF8110FE6A77
:1004E00081105CE28110201681106CD1811068EBC4
:1004F00081107F6E8110440181108590811080A150
:10050000811032A081100088811072068110D706F8
:100510008110ADF9811088F9811060278110CD918B
:10052000811086958110AF05811029D98110386B13
:1005300081106B448110BDD3811084EB811080A7A2
:10054000811034688110162F811080A6811022043A
:100550008110312F8110D5FA811048668110E64F45
:10056000812198598121504781211C268121940C99
:100570008121C6BE8121FFFE8121C4B1812188B9BC
:100580008121F61A8121CF4A812188B98121A8BD14
:1005900081214B5081217AF9812172668121576630
:1005A0008121EF4C81218CBB8121BBF28121022B67
:1005B000812192268121D206812157048121EE4991
:1005C000812110B48121C32781218E1D812187853E
:1005D00081212084812133278121C858812122C48F
:1005E000812169D181219C588121BEFE8121AEBC2F
:1005F0008116B96481167F7B8116F1BB811691D972
:100600008116A9DD8116434A8116B9C681163F407D
:10061000811615D3811600BF81167A068116ED4228
:10062000811618FF8116850481168DD9811688B927
:1006300081168007811677048116811181167DE469
:1006400081167DD9811638FB81163EF7811690B44C
:1006500081165AD381163CC8811630E081167C7A07
:1006600081165D7A81168EE581163BA78116DF7FA4
:100670008116EF7E81166387811650228116188BB2
:10068000811F3D7E811FEF5A811FF191811F71B93A
:10069000811FA6DB811FC800811FBACE811F7F4644
:1006A000811F0D99811F20BF811F7B04811FFF4087
:1006B000811F58BF811FC504811F8DB8811F08B9D4
:1006C000811F02A7811F7F24811F85DD811FF9F40F
:1006D000811F7DD9811F39FB811FDCF7811FB3B4D6
:1006E000811FA0A1811F294D811F70C0811F787AB1
:1006F000811F4F4A811F43B8811FBEF7811FDF6AE8
:10070000811FEF7B811FE3A7811FF222811F50020F
:10071000811840A381187D668118FB568118EF6A05
:10072000811855D18118AFD38118470081184087AF
:1007300081184A428118F5B68118B6A881182CF1A3
:100740008118812081187012811873668118DF6EFC
:100750008118A8D181184010811878A28118E2026E
:100760008118122E8118420481183246811876466B
:100770008118F3068118DFCF811882EF8118122EBD
:100780008118D76E8118C7BD8118C1188118D53A54
:100790008118842B811812048118F3008118193BE9
:1007A000811BFF74811B0E7B811B8DF9811B2DF931
:1007B000811B2F7F811B1F20811B82EE811B3542F5
:1007C000811B0DB1811B22BB811B7642811BEF5720
:1007D000811B10BF811B0586811B8DD9811B28D1F0
:1007E000811B8225811B6B4E811B848B811B5CFCD2
:1007F000811B7D51811B39FB811B6C73811BB09464
:10080000811B029B811B2440811B30A2811B705ADB
:10081000811B7F7F811B8AED811B3966811BDF7BFA
:10082000811B1F73811B7307811B1821811B2401EE
:1008300081198081811912E78119796E8119FF3C34
:1008400081195CA0811936248119C8098119A8F37E
:10085000811918D981195F6A8119895081198C54BD
:1008600081197DCB81197DD9811932AF81197766C4
:1008700081195EC4811981008119220681197A04C7
:100880008119C60E81198604811986068119C562EF
:100890008119B4BE8119CF7D811982A78119E3DF47
:1008A0008119252D8119B9A881192DF981192815CA
:1008B00081193583811978A681195D488119A5149C
:1008C0008120FB4681207F4981206BFA8120F4FE44
:1008D0008120502D81204D0081200124812009405C
:1008E0008120AFC08120A5BB8120D22E812065123E
:1008F0008120A88F812053AE8120CDFD8120ADF9CC
:100900008120CB36812073FF81206EE98120A5CC28
:1009100081202DF9812039F981206D508120A898FE
:100920008120D62681207555812079D0812038A15B
:1009300081206900812045028120EF4E8120DED791
:100940008120C870812036AF8120502E8120C000C8
:10095000811B3326811B8D1D811BAA99811B09A137
:10096000811B2424811B4342811BA946811B578282
:10097000811B4304811BD74E811B5ADF811BFA6503
:10098000811B7A06811B8508811B85B1811BA09183
:10099000811B7716811B7FFD811B1224811BC540A3
:1009A000811BEDD9811B88FB811B8396811B57BC62
:1009B000811BC6AE811BED30811B39D1811BB0BBC1
:1009C000811BA9D9811BBEFE811B8DF9811BC9DE4C
:1009D000811B3940811B3C03811B322F811B3E7DD3
:1009E00081277E568127460E81270D108127A57A03
:1009F0008127B2B781278FC08127712681274304C1
:100A000081270B848127AD738127AD818127ACFBC2
:100A1000812799A481279287812745148127AD904A
:100A2000812709F3812738ED8127C5FD812780E9DA
:100A30008127B9F3812779DB812779FA812714840B
:100A400081273A59812730D98127BDD9812700A92B
:100A50008127CB18812706A681279F0681277AE365
:100A600081276A4E8127BDBB8127B0BF8127C50280
:100A70008121F1AB81210E0481218D2E81210A0477
:100A80008121C55C812128FB812147688121C59195
:100A90008121E0908121724C81212D588121FFFB21
:100AA0008121734E8121EDF9812190AB8121823D1D
:100AB0008121ABD48121DEF981217A4481216F40EB
:100AC0008121CE1B81218FFF8121ACF58121EF4B4C
:100AD0008121C5A08121C33F8121879C8121FA9575
:100AE000812130108121FC538121CFF9812106051C
:100AF0008121ECEF81215A7481213F4681215204EA
:100B0000811A1174811A3BFA811AB7B7811AB0F9A8
:100B1000811AABDD811ADFEF811A3BE4811A7D86F1
:100B2000811A0CF3811AB09F811A740B811A672EF7
:100B3000811A33AF811A8565811A8DD9811A28915E
:100B4000811A2020811A7FBE811A2155811AF4D67C
:100B5000811A7DD1811A39FB811A6CFB811A988622
:100B6000811A58BB811A2580811A3860811A786AE7
:100B7000811ADD1A811AC337811A34E6811AD7EA3D
:100B8000811ACF5F811A4B55811AC311811A4123F3
:100B9000811F85F9811FF65B811FF9DF811FEF5AE5
:100BA000811FF5F3811F8DD3811FC6B1811F88017D
:100BB000811F482E811F0F5C811F8E08811F88991D
:100BC000811FFF00811F7853811F7246811FF746E6
:100BD000811F38DB811F3450811F7909811FB022AA
:100BE000811F922E811F5704811FF2EF811F5264D3
:100BF000811F6228811F72C3811F864E811F52B6DA
:100C0000811F940E811F8F5D811FF4BC811F041111
:100C1000811F8799811FC254811FE040811F60D2CC
:100C200081124D01811210EA811242248112862222
:100C30008112008181120444811245088112C4F19D
:100C40008112D32F81125A408112C6068112FFF100
:100C5000811284B98112B09A811272A68112D72EA4
:100C60008112D7348112C59B8112EE9981124148BD
:100C7000811282AD8112879C81128FC18112A95A83
:100C800081123C568112E65981124F9F81128DB913
:100C9000811273E48112440281122A778112E3BE29
:100CA0008112D582811271A68112546E8112866ED4
:100CB000811BB01C811B2B02811B8854811B68384F
:100CC000811B0281811BC342811B4100811B186A69
:100CD000811BC380811BFFFB811B38C3811B7944AF
:100CE000811B7A2E811B4D40811B08D0811B2DD189
:100CF000811B54AB811B5204811B3026811BD20403
:100D0000811B7D7A811B90C1811B6652811B55CE50
:100D1000811B4046811BCDD8811B31E9811B031A01
:100D2000811B7BEA811B169C811B21A0811B7C45BA
:100D3000811B1F7A811B302F811BC92C811B9CE7D3
:100D4000811D0059811DFEB0811DFDF3811D3A9565
:100D5000811D0D40811DCABB811D39D7811D77665C
:100D6000811DDFFF811D339F811DD320811DF61F53
:100D7000811DC7AF811D0704811D89F8811DA8B1A0
:100D8000811DC202811D2EDD811D8940811DA5B7F7
:100D9000811D7BD3811D505B811D7B55811D786139
:100DA000811D05BB811D070C811DB0E3811DF34A28
:100DB000811DFB3A811D4371811D72A6811DD72EB5
:100DC000811DC51E811D6305811D1A13811D4100F2
:100DD0008127F5CE8127766E812704268127822EF2
:100DE0008127B2868127D55081274D79812782318D
:100DF0008127A0408127E8C08127AA3781277DE588
:100E0000812799528127F772812776028127570F10
:100E1000812719EC812798428127D6F7812709512C
:100E20008127800D81278EB5812780A98127831492
:100E300081277E768127FF528127CC148127099153
:100E4000812784A0812705008127CD5D8127E9B511
:100E50008127AEC1812710C281278CFE8127AFFF79
:100E6000811BB2DE811BF5A7811BDBBB811BBBDBBA
:100E7000811B796A811B782F811B3EF7811BFF65DF
:100E8000811B8FD9811B28E9811BD00E811B8222F7
:100E9000811B4C16811B85EA811B8DD9811B28FB88
:100EA000811B5616811BB7FF811BF240811BC5D4E5
:100EB000811B3D59811B39F9811B6B99811B2C7D4D
:100EC000811B52A5811B540A811B7A00811B7C4027
:100ED000811BFCDA811B5006811BD088811B1246C6
:100EE000811BC315811BE767811BEB95811B730E6B
:100EF000812BE593812B5824812B8580812BD2EE89
:100F0000812B72AF812B7444812B5CF9812BC73FFD
:100F1000812B30F9812B7ACA812B8C7E812BD324B3
:100F2000812B5708812B3CF6812B7726812BD74EBE
:100F3000812B17FD812BCC63812BF2AE812B5A08BC
:100F4000812B802D812B8F24812B80C9812B8F9524
:100F5000812B40A9812BCBB1812B0711812B889547
:100F6000812BA491812B7860812B4FB9812B60B1AB
:100F7000812B94D0812BB8D1812B28EF812B062E89
:100F80008122820181228810812284488122FBF7FC
:100F9000812219ED812210048122CF8B8122E9F96F
:100FA000812232A98122736C8122500C81228942D4
:100FB00081227A6381227DD9812230AE8122D72697
:100FC00081221BEC81228802812202AF81225204FD
:100FD0008122440C812287048122AE868122EDD3B6
:100FE000812284188122CA1D812287BB8122ED596A
:100FF000812269C18122794A8122EFB98122089137
:101000008122118281227DBA812210AE81221204B6
:101010008124BFFC812409A581248B14812490DDC7
:101020008124A52C81245F688124008C81241502F1
:101030008124C3D18124B9F781247AF681247F7E6B
:101040008124C9B981248CC38124EF7E8124CDFB06
:101050008124B71081247F248124BF5B8124A0FFD9
:1010600081246A618124504281245E698124900236
:101070008124BCF78124DDB9812482A6812452BE5B
:1010800081245B1081249B4A812459468124FF7F5F
:101090008124A8FB8124E20481247006812470004D
:1010A000811F1024811FA41E811FFAFA811FFDF9E0
:1010B000811FF9EB811F808B811F8348811F28D3FB
:1010C000811F0A00811F0F14811F4D41811F88401D
:1010D000811F7ED1811F7F4D811F89B9811F28D536
:1010E000811F69C8811F2002811F2E0E811F72047B
:1010F000811F7D52811F38C3811FF486811FD7F461
:10110000811F903F811FBC7C811FFCF0811F237ECB
:10111000811FCB2F811F478C811F85C9811F88515B
:10112000811F7B5F811F67A3811FC48C811FBDF15D
:10113000812573468125DF1C8125625881258BF925
:1011400081250481812587108125C7028125C2B7A9
:101150008125375E8125FFD7812529D081253DD97D
:101160008125B8D18125718081257002812557465E
:1011700081251DEC8125092081250DFB81250FC1CD
:101180008125D2AF8125F2268125D6268125D5A2BB
:101190008125FDDC81251AF381250026812587BD67
:1011A000812543448125124C81253A6681257F1C87
:1011B0008125D0A281251CD0812504A18125A4925E
:1011C000810F000C810FEA58810FE092810F11E925
:1011D000810F2824810FF10A810FD786810F7BDDD3
:1011E000810F1FE7810F9637810FC6AA810F620614
:1011F000810F3AD7810FD60E810F857A810F289102
:10120000810F523D810F634E810F852D810F812407
:10121000810FA9F1810F08A9810F8416810FF5F4C0
:10122000810FED48810FBC50810F38E1810F006ABA
:10123000810F8FDF810FCEFD810F2A46810FF9E8E4
:10124000810F376E810F062F810FE519810FADF9E0
:101250008123B3668123CE2C81232199812338E514
:101260008123CF4B81238B408123330681235F4C25
:10127000812309D18123294F81237D578123C102F5
:10128000812310268123000081238D388123A8B972
:101290008123B23181232EE78123D60E8123D4BB53
:1012A000812379D181239DDB812349998123808208
:1012B00081235FD481232DD98123B8E1812333A1F8
:1012C0008123883B81233A318123D209812328C09D
:1012D00081230C5A8123AB9081232125812373FF25
:1012E0008120FDCB812080A58120000D8120460436
:1012F000812081B08120ABD581205F728120EA3FBF
:10130000812032D681207FDF812035F981205AFD6E
:101310008120B6E681202A588120320281205F4C4C
:101320008120BD6B8120AE3981201D778120DF2D8A
:101330008120C22E8120E6068120560781208F5B06
:10134000812049C181200BCD81208A2D8120C7FFBA
:10135000812043A48120B45B8120400A8120170EA4
:1013600081207EBF81208CE881209F628120AF9503
:10137000811F0222811F3564811FFB1C811F6A4669
:10138000811FDD5A811F8FFB811FD50A811FE85500
:10139000811FC100811F95AA811FDBD7811F249067
:1013A000811F0900811F5A00811F7766811FDF5C42
:1013B000811FADF9811FDFBD811FC4A9811F121ECE
:1013C000811FCE1E811F2F44811F7862811F7F4F96
:1013D000811F0F48811F4A10811FEB5E811F00BFD4
:1013E000811F5206811FD7DD811FC630811F650115
:1013F000811F19D9811FBCBE811F73E5811FC31ACC
:10140000812B7442812BC32F812B00AB812B942223
:10141000812BFE8E812BB5FF812BD76E812B88F916
:10142000812B8880812BA8B2812B22B7812B51E39D
:10143000812BBB46812BFC19812BB583812B571F38
:10144000812BB9DF812BFFDB812B7F60812BE118A2
:10145000812B94B9812B2EED812B2C7F812B570D65
:10146000812BDF16812BDE91812BEF51812B848123
:10147000812B8214812BF1B3812B8F59812B2990E1
:10148000812B8EFD812B8AC2812BEF55812BBEFFD4
:10149000812E8F99812E2191812E0C06812E026E34
:1014A000812E5004812E7516812EFCFB812E42ABBD
:1014B000812E7646812ED551812E86E9812EC2CF8E
:1014C000812EB8BB812E503B812E9156812E87589C
:1014D000812EA9F9812E30B9812EDDFB812E8591D7
:1014E000812E8BB5812E3AC6812E34EB812E566E1D
:1014F000812E6F44812EDBD3812E80BF812EA4BB31
:10150000812E638E812E8E37812E0304812E2E5DD7
:10151000812E5F6F812E9F5E812E9E6F812ECFDB8D
:1015200081346BD98134F1B08134D9B58134EF5E27
:101530008134D47C8134149581347EFB8134C23D66
:101540008134E3F981348DFF8134CF9981348093E4
:101550008134A5588134FAFF81347B4F8134FF7A7E
:101560008134ACF38134D9FA813449BD8134BD7BF7
:10157000813492AF8134730681347F4A813434429E
:101580008134156981343BC5813484FF8134426FD5
:101590008134732E81344C0C813490168134671061
:1015A000813494AA81349DC481348DC3813451889F
:1015B000811A3B5E811A6D72811A90B9811AB8B98D
:1015C000811A2E43811AC8EB811A3226811A7F04B0
:1015D000811A8DF1811A28E7811A5A46811AA512BB
:1015E000811A28B7811A4306811A8DD9811A28FBDE
:1015F000811A5206811A2314811ACC48811A85EE69
:10160000811A7DD1811A58FB811A6B14811A3446D4
:10161000811A92BF811A3458811A70E0811A756A52
:10162000811ACF5A811A8BC0811A7187811ABAFA2E
:10163000811A162E811AD327811A5132811A51002C
:08164000801168F380117C9A0F
:00000001FF
