110100111111111001111010101111111101101110110000000100011111000100100000000100001111100101101101111001000110110001100000110011110111111011101111100111100110110101000001100010011011101111101101010101101010000110101100010010010110001001001100011000100100111111010111110100000101111100001101000010111001001010001000101100011011010101100001001010010100000101111001110000011001110001010000111111010101111001000010000011000001111000110111100101110001000001111000011001011000010100111011001101000110111111100101110010100010000001000010010101110011100110100011111101001101011111110011
100100011010001110000001000000011111111111010101010101100111111101000111001110100110100000000100100010110011011011010111000101100111011011111110100000000010001000001001101000011000010100000001000001010100110000010001000000000110000001001110011000001110101110011111101101011001111100010001111001000000011010001001101100111010100101100001101000001111010110011011100101001101011000011100001000101101011011001011101111011101011100100001111001010000000100010110001011001111010001101000011001010000000100100000010001001111010010001100010111111010101101100110000100101111001001100111
100110100001100111100010000010100110010000111000001100000010100101111101011000110111111111111111100011010010001110011101000100010101100001101111010100101111001110011101000100011011110100010101000010101101001010011111010111100110011001001110011001101110101000110010111101111101110100110001010011111101110111010100010000000110010001001001011000000100101100100000111010101001001001110111001011010000100011100100110000111011100001110001101000011110000100100001000001001110010011001100000110100001001100100011010001001000101110010110000110100011100101111111011111010011110101110101
001001101001110111011110111111101101110110001111100110111000100110111011100101010101001011000010011000111001110100000010111111001100101110101000111111010000000001100000010111100100001010110111111111110001100000100000101000011001101110110001100111010001000111100000000000010010000011101110100010001000000100100111101111101001101110111110110111110001110011101111011111000010110100001001110010110101101000010011001111000000011100001100010111100011111001011110101110101010011101110001111001011101110011111110111110110111111011110111111000011100011001000100000010101101000100011000
011111101011110001011010111101111000100110001111100111011000111011011011011001010000000000010011011100110101110101100010111111101001100110110000111111010000010000100000110111100000001011111111111111010001101000100000101000110001110110110001100111010001000011100101010000000010010011111110101110111010000100101111100111111001101110111110110111111001110011101111001110110010110111001101100001010000010110110010100101000000001100001110010111100001111001010010111100100001110111000010111011110111110101010110111110111101111011110111111001011100011101000100010011110100000000001010
110001010000001001100110101111100110101011011111010101101111011110001011101010101100101111110101000000001110001011100001000000100100001001010010011011011010111100010101011011011000111100110100000001001000000101001000000011100110011011001110011101101111101110001011000101010000100000000010010001010001111001000000010001110111010001001000001000000100001001100010010011000110001001101110011000001100111111110011111110111111011101000001011101000100100001110110111010111011110111100011000110001000001101011100101010111101010000100001001000000100100000000000110011111101110010011000
001011101111111111011110011100001001111110110001100111111011010011111110111101000000010011111000011101110100000101000010101011001000110110110000110111010100010001000010011011101110101011110111111111010000100001100001101000001001101110110001100010110001010010100100010000010111001011010110110100010010000100111111001110101000101010111110110111111001110011001110001101100010100100001101110110010100000000000010001001000100010100001100010110100000111011111110111111101011011101010001011001101001110011011110111110111100111011111000111000001100111010000100000110001000000000100100
100000010000000111100111010010000111011010011110001111001111111100000101001110100010010001101100100100000001001111001111000101011001101100011000010101101111101000001010100100010010101000110001110100111011111010011011101111101111010101001100011001101110111000100011011110100000000010000001011000000100010000100000010111100111000001100011001000000110000101100000011000010100011010100011011111010010110110111110111100111110010101000001111110111100011110110100101001000001010110011101100111111011010010101000000101001100000110101100011001010001111000010010101110100010100010100101
011000101101111110010010111111100101111111010110011111110010111110110100000010100000000010110010001001001000000000000010100100000000001111110101110111011010010101110100010010110100100010100110111100010001010101110101110010101011111110110011100111111011010101101100110100111111111111001110100101110111011000110011101001011001111110110100100111111001110000001010101101100001100100010101011001000110101110101010101011100000101110011110100001010001110000000000100101100100000010100010011100101111011111101011011110110000111000010011111101010110110001110100000010100000000000000011
011001001100110010111000101100011001100101010101100001011001000000100100001001000100001011000010011000101001010101000001111010100010000011000010011100101110101111111011010110101010011001011111011000000101111000010000101000011000110110100001100010010000010101101000111011101011111111111110001001000100100000000010101000111001101110110111110111110001000101101001110000010011110111101010011101010110001100001100101101111000101110011100110111010000110110011011100101010111111101111101100111111011000101111011100100110000001010011100110000000011110011110100010011001011111001111100
011010100111111001110000011000100000100010110000010111101010010111101101010011010000001111110001011001001000111000100000110000100010000111010000110011101011010110000001101101011101111100110101001001011001100111100001010010010010100010100010000010011011010111001111100100001011011100011100101111111010001110010111000000011100111110011101110110111001111001011111100111100010000100101000100110100101110010011011000011001001101110111101100101010000000000011000110100110110010101100000011000001111100111000111010111100111001001010110110111011011110111111101000011010100000010100011
110101011000111100100000011100000111010010110001001000000101000000111010101000111101111100010100000101101110001010001001101000110000100100000111001100100100111000011010101101001101111111111111011100101100111010011111101101111101010100001001101111000100000100101011110101011001111101111011001000100101111000000010111101101101100001110011111111111111000110101111001101011101001011110111000001011010001111111100110000110011100111100001101010010101111100001000000011001100101000111111100111111111001110100000011000001111011100110111001011100101101001100010111111000010000001001010
001011101000100001011111110111001110110111101101100111110000110110111011110101011111011111111011001001111101110001100001101111101100111100110000111110010000110111010000001011100111010011100110111101011100110010100110101000011001101110110001100010010001010000000100000001000111110111111110101010101000010001101011001011111000101110111110110111111001110011011111001101100110000100011001110111010001101000000001101001000000011000011100010101100001111001011000101110111110110011000011011001110010110001010111111010111111101011110011101010101101001010001000110000111100010010000010
100111111010000111011010011011111111101110011111010110101111011111001111101011111100101110110001100011010110001110000000000100010111010000010010001110101111000000010000011100011001100100010001000000001111111111001010000111100110001001001110011000101110111111011011000111000000101000101100100100001001111001000100000011010111010001001001001000001110101011110111010011110010011001001010000101000100011011000011010011100111001001100001011011010100101001110000001010011011101011110001001111010010111110001000001000001001100111100001001010100100001100000010000001110100101100000110
100000001011001001010111000010000010010001000010010001000110000110000001000000000010001000100000000100001010001010001111001000111111010011001011000000100101101001100000011000111000111111111111100111010010000101011001000011010110010101001110011101001110101100101100111010111101100110100011100110010111011100010010100000101011010101000001001110011110000110000011111100010101101010010101011010100011110010011010011001111111100111110010100111011011000100100111110011100100000000100010111011100101010001111101110001110100000110101011011001011000111001110110001010100111011001100001
001110000000110101000000110101000010101000010001000111000001011010000001010000000100001011000011000000001000001001010110000110000000000111000011110111111111111111000011000111000010001010011110011101000101111000000010101100100000101100010000100010111011010011010101001010100010000001001010011001000000110000100000010010110101111010111110100000110000100101001010011001100111001110101010011000100000001000011011101100111001011110001100010110001100000001010111110111100011100101101000000001011000010010100010001111100101111011111000111101000000110000110100100100111110011100111001
100110100000000000001101011111111100111110111111101010010101110000000010101100001101110101010011111010111001110001100110111011101111111111111011111110011100110000000100110010111111100001101111111101011110001100100000111000000001111110010001100011010001010101000000010000111011101101110100000000101001000111101101101001011100101111011110110110100000101010101010110111101000011000011110110111011010000000110000111000001100011100001101010100101100111101011100110111111000111011000010011001010100111001110100111010110111100010100011101000001100011011001000010110000000000010000010
011100111010111101110110011011100110010000100000011101000100000101100001010011010000101010101011100111101011001010001100010000010000001000000101000000110001011111101100010101011010011110111110010010101001100101001110111011110100000001101110111100001110101000110111100110000100001000011001111011110110101110001010100100001011000000000001101011010111000110010101000000010010100011000001011011100111111001001010111111110010100000110011100010011001000000000101001000010000000010100000101110101011001110101101100101111000001101110101010000110000100001111111001100011111111111110101
011110110100110111100101101011111101110111011011110110111101110101010110100111101111010000011110111011110111110010100110111111111001101111110001100101110001010001110000000010110100010001000001011010000011001001010111101000011001101110110001110111110001010001101000011010101111111111101101000000100100111100101011101000111001101010111100100111111001110010011001110101101011111000110100101001010100101001010000001010100000000001011110000000100011111001011011001111110110000000001010000100010000101101100010010010001010100011000011111001101110011110101001110101110111000011001110
110010011010011100100100000110100000000110100001011101110100101111110101010011100010001000101110100111110011101011111100111000111001111100001100010100110101111001111110001100010010010011001011000100001110101001101111001111000110010011101110011100101110101110111111111010001100011000110011011101010100111100010000010110101011010000000001001001001111000110010011000000011010100111110001100101010000001010001101110100111000100011100000101010010001000110001001001001010000011000011110100111011111001010001101000001100000101100101001100010110001110111110111000101000111010001100000
100000000100000100001000000100010001001000100001111011111101111110110111100110000010000000001000110100011111001110011111100101111001010101001100001101101100111000110000000010100100001010010001110001100101111010011011101111100111010100001100011001001110101100110111110110000100000000010001111101010100000000100000010010100011000000100010001000001110000101100001011101011100101110110111000110000010000110111000010100111101110111100001100110101011011110000011100101100101001010011110100111011111011110001001000100000100000110001000010111011011111001110101000010000010000001001000
001111111111110110100101100100000010100011010001101110110000100100110100101001010001011011111010001100010000000001000000101010001000101111000011111011111001110101101111010111100111111011111110100111011001001111000011001100010111111011110111110111111011001100001000111011010010010011111110110110101111110111111111000001011000011001010110010000100000101010010110011110100100000000001001111011110011110110011101101110110110010101000001011111010100101000001000110110100101001011011001011000101001101011111110111111111101111100010101001000000100011101100000000011100000000000001110
001001000000100001111000001001010101111101011111100111111011111111010111100111111101000100000001000100101100000111001011000101000000000001010000001010001111000010000010101100100000001000010001100010110111111010110010111111101001110110010001101010110001010000010011100101100100000000000100011100000111010000100000010011100100101010111110110000110001110001100001001011110010111111101011111111000000100100111110001111010000111100111111011111101100010011110100110100110011000111100010100100111010000110001010000100011111101011011110110001011110011000110001001000111000111110111101
011000101100111000111000111110110001101001000110100111111101000110000001001000000000100011100001010000001110001111101101010000110111101011101100111010111111111100001011100101001001101110111100100010110001110100000001100011100100000000001110011000101110101000110111101110000000010010010000110111111011000010000011111100001111010101001011011001000100111101100100011010110100010110101011001110111011111111001111010110000110010000000000101111011110000100100010110000100011001001001000011001100101110000111000111111100100010100001011000010110011100010000101001000000100100100100101
001100000000000000011010010101110100100100000111100101111000100000100100000101000101000010001111011000011110101110111011110111101110011111111000111011000110100101010101011000110110000001000110111010110101110001110000011010110101111010100001100010010001010010111100010010100111001011000110101101001010000100100100100000011000111110010101100101010001000001101000001000010010111110101111000100101011011100001010001111011000011100011100010101100000000011111011111100011011111101110011011000100101010000010111100111110111011011101100111101000110000010011000101001111001111110110101
011001101100110100110100011100111001100110000100101001110001110011010010111100110000001011010001011000001100110000110010111110101000101110010000111100101001010011101010101111100100000010000011011001000000100000000000000000000001110010110001100111010001010110001100010011011110011101110100011100000110101111011101001010111000101110011110110110111011100110011001100100100100000100000001001010111111101010011011101101001000011100011101100001011100110011011100000100011000110001011100100100000100101100000011000101000101101000110000000010011101010110100100100001001111111111001110
110100111011111110100101000000011011000000000000001000000110001000001101100000011010101111010101010011101111101011111100010101110110101101001100111110111111111010011111101011001011111101011010011001110110110100011010010101000100000001001100001100101111101011010110101111011001110001110101111011101011100010110100111110110111010001000011011000000110011111100000011010101101101011110001100000111001001010110011110100001011010001010001111111111110001100100101110000101101101000101101010100000000001001110000111010001111110101111110000101110011000101000110111110011010100111110101
010001000100000000100110101011000011100011011111011000100101011001011010101110111101111111110001010100001010101110101010000101110000000010000011010101011010100111101011110110110000100100100100000000001001000000000000010110100110011011101110001110101111101110011111101101011011110111111011100101010010001101111000010010000111100001110011001000101111010001000110000111101111001011111110000100101111000000001000010100100111101011010111111111010000000001100000010010101011101111101011000011000110001110000000101001101001101110011000011111010011110110100111110011100101100011000011
010000100010111011110100110000111101010100000000010001000010100101110001011111111111111110101101011101101110101110011111000100010000000100010001010011010001010111101101010001001100011110001010011000101101110110011000001111111100000110101101111110001110101011111011100111011101101111111111000001101111111000011000100001111001110100101001101101110111010011111110001101001011000011101010011010001111101110001001011110111000101011110111100000010010000100101000010000011100110110001111100110101111000100001001100101001011111101110001010000110101000110101010111101111111111101111101
100110011111000110001001100001000110000000110000011101100100000000100000000010100110100010101110110111110011111111010101010000100110001001101110100010101010101110010111011000011111001101000011110111010001110111011100000010100110101010001001000110101110000110011111100101011001110100001100110111111011101110001001101000011010110111010001011000110101110011010111001011000111011001101010001000101111011011001011110110111111110100000001110111010010010101110001110001101110110001110001001000001100000010111010011101001111011011111010011110101111100111110110011110011101101111110011
100110111101011000001101100011111010110110011011011110101111011100111110001010111010100100101000110111110111111010111100010000111001111111000111111111111011000110011001111100111100100100000001000110101010010111111111010111111111001011011110010111101111111111001111001101010101111110011011101111011001001011011110101111011111010101001001011000001100111001010010111111100100001000101100100101101010100010100011110111001111111100100001111101100100001001110100110011100011000000110010011010000000100100001000111001100101010100101001001000111011100111000011101100010001000110001010
011110101101110001001110101101101001110100001001100111010001110111000010011101001101011100010011011001000100110000100000111111101000111110110001111001110001010001100010010110100100100010100101111011010001010001100000110000101001101110110001110111110001010001100000010010100010100011000100000100100011001101110111101000011000101110111110110111110001101000101000110101100110001000101100111111010100100100011010001011000000011100001110010101101010111001011010111100110000001111010001111000011000111001011111010111010111010001101000111001001100101101001100100010100000000010001010
