8005FE6B
8005FF26
8006FFD3
8006FFC2
8006FFE8
8006FFD8
8006FEFF
8006FF3F
8006FFDB
8005FF7A
8006FF00
8005FE5F
8006FEC4
8005FF4C
8005FEC8
8005FF48
0000FEC3
0000FF29
0000FFC1
0000FE5F
0000FE47
0000FFC5
0000FE49
0000FE5F
0000FFC9
0000FEDB
0000FE30
0000FEDB
0000FEAD
0000FE40
0000FE26
514280A6
0000FFA4
0000FE00
0000FF22
0000FEFB
0000FFDB
0000FF4B
0000FEF6
0000FEA4
0000FEFE
0000FFD6
0000FF1B
0000FEE4
0000FE33
0000FF53
0000FFDB
4B408183
0000FE38
0000FEEA
0000FF89
0000FFA3
0000FF31
0000FF13
0000FE90
0000FE39
0000FF91
0000FE90
0000FE42
0000FE19
0000FEB6
0000FE20
0000FF24
52458063
0000FF2B
0000FEDC
0000FEE5
0000FF84
0000FEF5
0000FEE7
0000FE81
0000FE31
0000FFA5
0000FF97
0000FE64
0000FF2B
0000FE47
0000FEDB
0000FE41
50448061
0000FEF8
0000FF0F
0000FE55
0000FEBF
0000FE00
0000FF57
0000FEC7
0000FEF4
0000FE43
0000FF77
0000FE1F
0000FFC0
0000FE3F
0000FE2F
0000FF0F
50448003
0000FE2B
0000FEC7
0000FFCD
0000FEB3
0000FEF8
0000FE6C
0000FF34
0000FF27
0000FF4F
0000FF04
0000FF5F
0000FE27
0000FF27
0000FFBB
0000FEDB
5043803B
0000FE33
0000FEBB
0000FF94
0000FF6A
0000FFC9
0000FFED
0000FEE2
0000FE33
0000FED6
0000FEC3
0000FE09
0000FEB3
0000FE1A
0000FEC8
0000FE40
514480C8
0000FF07
0000FECC
0000FE10
0000FF09
0000FF05
0000FEA1
0000FE13
0000FF8B
0000FF3B
0000FE43
0000FE3C
0000FF0B
0000FE0E
0000FE4C
0000FFF4
53488067
0000FF37
0000FE6A
0000FF92
0000FECB
0000FF6E
0000FF93
0000FE91
0000FE9A
0000FF83
0000FFC3
0000FE63
0000FEB7
0000FEE3
0000FE49
0000FF00
4C44806C
0000FE24
0000FEF8
0000FF86
0000FF48
0000FE6F
0000FEE7
0000FEB7
0000FEB7
0000FFA6
0000FFC7
0000FE08
0000FE27
0000FE00
0000FEDB
0000FE49
524280CB
0000FE27
0000FEE9
0000FFD4
0000FFE8
0000FF40
0000FE38
0000FE8D
0000FE87
0000FE8C
0000FFA8
0000FE4F
0000FF22
0000FE78
0000FE5B
0000FE58
53448052
0000FF36
0000FEB9
0000FE9E
0000FEF9
0000FEED
0000FFCE
0000FE36
0000FE92
0000FF26
0000FE9E
0000FE4E
0000FF26
0000FED1
0000FEDB
0000FED9
4F438049
0000FEDB
0000FE29
0000FE79
0000FE5B
0000FF2C
0000FF4B
0000FE4B
0000FF5E
0000FEFD
0000FED9
0000FEB8
0000FECB
0000FE29
0000FFD4
0000FFA6
52468136
0000FEF3
0000FF33
0000FE7A
0000FE79
0000FEDF
0000FE4A
0000FFE8
0000FF7B
0000FEFE
0000FEFB
0000FEBE
0000FE7E
0000FFDF
0000FF80
0000FE8D
4E43809A
0000FEF0
0000FF0B
0000FF16
0000FE29
0000FE0F
0000FE4F
0000FE57
0000FFE8
0000FE5E
0000FE74
0000FE1F
0000FFD0
0000FE2B
0000FE0F
0000FE07
5546802F
0000FF21
0000FE0D
0000FF8C
0000FE88
0000FE1C
0000FE9C
0000FFA0
0000FE2D
0000FE2F
0000FF24
0000FE4F
0000FF22
0000FF07
0000FE39
0000FEDB
51478028
811AFC32
811A35AD
811A5BFB
811AAA63
811A7B7C
811A4B5B
811AB400
811A7595
811A2B5E
811AE43A
811AF4B3
811A94A7
811A3800
811AFB37
811A417E
811AC438
811AD431
811A1985
811AE022
811AF43B
811A59B4
811A7BC8
811A6921
811A1BEF
811A8A09
811A0C82
811A6A39
811A775C
811A0306
811AC230
811A1B9D
811A8B68
811A9A5E
811A825A
811AC411
811A8530
81317403
81315F8F
8131CBFD
8131FD2E
813171FC
81310E40
8131FC32
81317515
8131A3DC
8131AC32
813116C3
81311B45
81315C48
8131B527
813171FF
81314378
81318001
8131090F
81310000
8131DDA5
81314652
81311088
81317B77
81314A6D
8131BEC0
81316BD4
8131C6B9
8131FED1
8131E77E
81319A83
813177BF
81317BFF
813173CD
8131FFFF
81319629
8131EB53
8132681B
8132EFF7
8132FBFF
8132D3F1
81322E0A
81321400
8132F7ED
8132E53E
8132559D
81329FEA
8132CEF2
81324401
813243D5
8132843A
81327037
8132D675
8132D21D
81328400
813203CD
81328EC8
813295EA
8132842A
813271B7
8132C868
8132EF3F
81325294
81324AFD
8132AFB5
81323FE7
81322ACF
8132742C
8132BC82
81327579
81323A3F
81324345
8132AFFF
811243CD
81128402
81121424
81120490
81128482
8112FC32
8112C35F
81124A6C
81127404
811291A5
81128BC8
811288C8
81124AFF
8112D430
8112BCA1
81123BC5
81122BCF
8112EB7F
81129FCC
81123EC1
8112AAE2
81121014
811253CF
8112E43E
81127FB6
81124BFD
8112BD8E
8112F433
8112DC39
8112B4CF
81124422
8112541B
811254A2
81124C85
811223DC
81127A95
8116551C
81160AB5
81161FE9
81163E4A
8116FDBE
8116E7F9
8116AF6A
81166032
811609A9
811684E2
81168422
81168400
8116FF6B
81161405
81163BCD
81162B4F
81168883
81166F54
811650C1
8116D197
81167157
81164B7F
811667ED
8116E23A
8116E6C4
811602C4
8116E238
81169C31
8116DBFD
81166BCD
81161177
8116F6AA
81162F9D
81165E36
8116173F
81169A0D
812DF50B
812DFDF3
812DFFF1
812DFFFF
812D7BFD
812D4BC8
812D574D
812D6A0F
812D0883
812D68C2
812D209D
812D6004
812D8B76
812D575D
812D33CD
812D0A4A
812D4296
812DC418
812D6402
812DD7BF
812DF57F
812DE77A
812DEF7C
812DE438
812DA7E2
812D9483
812DD4BC
812DDC33
812D0EFB
812D2D2F
812DCBD4
812DAA08
812D67BC
812D5277
812DDBEF
812D7FED
8126476B
8126FFDF
81265BFE
8126C0B1
81266462
8126D010
8126A5F3
81266416
81265114
8126A5EA
81260E52
81265488
81264BCD
8126E43A
812670B7
8126DB7D
8126AFFE
81265038
81260BED
8126AEEC
81263850
8126148A
8126651B
8126CC60
8126D837
812677FD
8126F77C
8126ACC0
8126BE17
812602C5
8126743A
81267FBF
812670F5
8126EB4F
81264A8C
8126C975
8122F432
812254B1
8122DBD1
8122FB6E
81221B4C
81220B4D
8122B400
81227597
81220BFE
81226A3A
8122F491
81223587
8122F522
81222BD7
8122417E
8122C43A
8122D430
81221005
8122ECE3
8122D03A
8122D13C
8122BBCA
81226DB3
81221BF7
81222E48
81228400
81224B31
81225AC8
812203FE
8122C931
81229BD7
8122A8DC
8122CA47
8122C258
8122CDDB
81228432
813574AB
8135BCA8
81355CD3
8135F446
813519C5
8135026A
8135B4BB
8135BF55
81358D2D
81357FAF
81353F53
81358304
8135F57F
81350584
813563DF
8135EB7E
81355018
8135C402
81358400
8135A573
8135C472
8135843A
813596C3
81359FF7
81353FC0
813508A9
8135D8A0
81352C81
813533C4
8135283F
813578A3
81356B7D
81352BCF
8135B272
81358B2A
81358C6F
81241AC1
81248402
8124A403
8124F50C
8124AF81
8124C8A5
81240396
8124CADA
8124C672
81245185
81242B0E
8124A77A
8124FC3A
8124135D
81248428
8124B513
8124070D
81241280
8124A62A
81244010
812400A0
81244081
8124D4B3
8124199D
8124591D
81249F8D
8124BF47
81241B4D
81242FCF
81246FF4
8124828D
81249247
812463FA
812400E1
81242DE7
8124AB7F
8122ED37
81224418
8122A081
81221DAF
81223361
81220209
8122E43A
81225104
8122C095
8122ADFE
8122376F
81222A45
81221C89
81228CE2
812211C5
81224BCF
81223ECB
81222FC8
812217DD
81222BCF
81226BDF
8122EF5E
812261FE
81226A4A
81223547
8122235E
8122435D
81220148
812226C6
8122C38C
81225406
8122ACCC
8122B42A
8122FB42
81224FB7
81229C21
81154B4C
811568FB
81157E3A
8115E8F3
8115787E
8115F438
8115B35C
811532AD
81153BD9
81152A58
811585CB
8115AE40
81158000
8115F507
811569D7
8115C2F9
8115CBC4
81153BFF
81154032
8115DD2E
81157F55
8115734C
8115082E
8115711F
8115A488
8115D821
8115EC32
8115801D
8115CE3A
8115BF72
81152840
81154530
8115D9A6
8115FAD5
8115C90C
81154544
811AA7F7
811A1609
811AC288
811A4001
811AACC2
811AFC3B
811AD12E
811A1824
811A9F79
811A1305
811AE71F
811AAF31
811AB1A9
811AEDB6
811AC432
811ADDB2
811ABF69
811AB0A3
811ABFD1
811A3E5B
811A2EC8
811A389B
811A1FC6
811A09C7
811A73BF
811A0309
811A0945
811A42C5
811ACBFC
811AC57A
811A1C22
811A57FD
811A8822
811A6C91
811A2D79
811A8420
811F3BCD
811FB64E
811F689F
811F64B3
811F4E7A
811F54B0
811F93BC
811F9BCC
811FEA7C
811F2218
811F099D
811F7238
811F0812
811FC77B
811FCC32
811FB5B1
811F3F6C
811F38AF
811FEFBA
811F1018
811F1880
811F3085
811F0BC6
811F6B47
811F510C
811F1BC1
811F23C1
811F3BC7
811FCF7F
811FF43A
811F1B42
811F9154
811F60D1
811FC1DE
811FAE78
811F9504
812E5BED
812E4FFE
812E7FD6
812EF7B7
812E13C9
812E8BCF
812E5095
812ECC03
812EDD31
812E7FC5
812E3B77
812E8BEF
812E50F2
812EE90A
812EC43A
812ED035
812E60BD
812EE027
812E37DD
812EAF68
812E84A0
812E90A0
812E94A2
812EA4AA
812E7AFA
812E82B0
812E8CAE
812E1413
812EAC08
812E90ED
812E7C0A
812E5980
812E4BDF
812EA246
812E2086
812ECB57
81247576
812442CA
8124CA69
8124FF61
8124F43A
8124D432
8124E7FD
8124BEFD
81247FD2
81247137
8124570C
81240A82
8124FFFF
81243FFF
81240BCE
8124C462
81249431
81241108
81244BAE
8124FF5F
812483E6
81240EC9
81242BC5
8124ABEB
8124377A
8124B5AF
81245A72
81246113
812443DC
8124080F
81244165
8124DE78
8124D4BA
8124920B
81249311
8124FE5E
811EB13F
811E5C31
811E78B6
811E5FD1
811E7B5D
811E0BC7
811E40A3
811E4202
811E50B4
811EBDC7
811E3016
811EC12C
811E0EBA
811E8820
811EF433
811EB9BD
811E8CE0
811EEE40
811E051C
811E8AA0
811E2A4A
811EB022
811EF53A
811ED032
811EEE3B
811E503F
811EE7FE
811E8CB0
811EBFE3
811E2FCF
811E4422
811E2EA2
811E3D6D
811E62A0
811E7BFD
811E735F
811AE533
811A7FFD
811A5BFD
811A6F7E
811A964C
811A86D8
811AB46B
811A3522
811A23CD
811AAF7E
811A94E2
811AE8C5
811A2FD5
811A24AC
811A31C7
811A6BFA
811AD099
811A3FD7
811A5B4D
811A3D27
811AFF7F
811A9FFB
811AFF73
811A735F
811A00A2
811AD021
811AD4BB
811A659F
811A793B
811AE03B
811A353E
811A54BA
811AD411
811A9438
811A851B
811A1431
8126F4AA
812651E5
81264B4D
81265B6F
8126436E
8126803A
8126E430
8126F135
81269D8C
8126AE6A
8126F432
8126503F
8126872A
81261087
81266BCF
81260BFA
81268EC0
81268411
81261700
8126F9D5
81267B5D
8126EF7F
8126E5E9
8126AAE2
812602C4
812645CE
8126D5FA
8126C481
8126779D
81261F8E
81260132
81265DBD
812619BC
8126D093
8126D5BD
8126F338
8134F3FD
81347FFF
81346A4E
81348589
81340201
81340BCF
8134B6B5
81343DC7
8134FD55
8134F7FF
8134BF6D
81346FFE
8134536F
8134688A
8134CCBA
81345011
8134703F
81349B4F
8134B76D
8134FFF6
8134B4E8
8134F436
8134F537
8134B747
81345B94
813401FE
81348C4C
81340EC7
81341882
813400A1
81344522
8134C11F
8134DBCE
8134C006
81344827
8134C9D3
813520B2
8135D431
8135F4B2
81356E3F
81351000
81358086
8135C49D
81351BC8
81355013
8135FF5F
81356438
81351540
813524A3
8135C777
8135CC38
8135940A
81350F46
81350000
8135E4B0
8135D098
8135A0A0
81357004
8135C4BE
8135C020
8135B42B
81353EC1
8135AF4D
81351FCD
81352F46
81350444
8135928D
8135EBD7
8135E3C5
8135E344
8135E2BC
81356DFF
8126F42A
8126C9D5
81267FED
81263B7D
81263B4E
81266247
8126F468
8126F535
812631ED
8126AD6F
8126D43A
8126703D
8126A57A
81263081
81263BCD
81260BEB
81268C60
81263400
81260106
8126FBB7
81267B5F
81269F7E
8126A3D8
812600F8
81268C87
8126D016
8126E638
8126CD78
8126135D
81261BC6
8126AD6D
81267D8D
81263DF9
8126F272
8126D52B
81267233
812DEFBE
812DC482
812DB187
812D23AF
812D0BDC
812D0343
812DF432
812D5104
812DF35D
812D1BCE
812D7907
812D7B3D
812DA408
812D8CE2
812D5053
812DFFE7
812D7AFB
812DAC38
812DB7DF
812D2BDE
812DCB75
812DBF41
812D03CF
812D02AA
812D5145
812D6B4E
812D021D
812D2923
812D2C4A
812D552D
812D5486
812D2971
812DA429
812D7BFD
812DBFD7
812DFEA6
811C0BDF
811C03F6
811CAB6F
811C7AF5
811CAB01
811C2F1E
811C2A32
811CE43B
811C771A
811C1111
811C85FE
811CFC73
811C42C8
811C2AC3
811CCC32
811CD014
811CBFCF
811C2BDF
811C5015
811C0BCD
811C2FCC
811C7BC4
811C4145
811C4206
811CB033
811C725F
811C2346
811C028E
811C5800
811C8EC0
811CFC20
811C54BA
811CB374
811C2D7E
811C5030
811C8120
812E4BDB
812EED9F
812EFF7E
812E5FE1
812EEE6A
812ED430
812ECBF5
812EE63E
812E7515
812EBBEE
812EC6FE
812EC6C8
812E43DD
812E8432
812E75B7
812EDE7D
812E93BD
812EA4A8
812E0B4C
812EAEC8
812E2FDA
812E0432
812EF4B7
812E88BA
812EBC3F
812E73FD
812EF3FD
812EAFFD
812EBFDD
812E2BC7
812E642A
812E7CB3
812E743B
812E331D
812EC375
812E7BEF
81110AC1
8111A002
81114016
8111E48D
811196C0
81113892
81111B95
81112FDA
8111F60A
81111000
811159A5
81117F3B
8111559D
8111AFFE
8111CC32
81119425
81113F4E
811180BE
8111AFFF
81110808
81110080
81113085
8111008D
8111AB55
8111501D
81113FFE
8111A349
811173C7
8111EC0E
81117570
811192C9
8111C825
8111D0DA
81114576
81115438
8111CFC0
811D431D
811D6FDD
811D7BFE
811DC4B9
811D4470
811D9010
811DE465
811DE01C
811D4135
811D87EA
811D2E60
811D5009
811D5F4D
811DC422
811D70BF
811DDB7F
811DFF7C
811D5438
811D0BC5
811D8EEC
811D7C58
811D548A
811D751D
811DCCE2
811D409C
811DB1D7
811DF779
811D8480
811DD232
811D42C5
811D542E
811D7FBE
811D72D5
811DCB4A
811DD80A
811DC1D1
8117DEC8
81179AC2
81179449
81172862
8117ECBE
8117F43A
81178FDE
8117B5ED
81173FDC
8117E036
8117CD28
81173282
8117FF6F
81173BD5
81170BCD
81178E62
81171103
81171285
811798AA
81177317
8117435D
81174FCD
81174BC5
8117ABC3
81173B4F
8117D5C7
8117DE70
81177513
811743DD
81176A93
81178BF5
8117C78D
811700BA
81171C18
81179511
81171478
812213C5
8122A3EC
81227E3F
8122FC3F
8122FF3C
8122AC1E
81221BCD
8122AFFD
8122EE48
8122A00A
812260A0
81220482
81226A72
81227B1F
8122EC3A
8122F430
81225190
81220AE5
8122CC28
8122F4B3
812284A2
812290A1
81225F56
8122113F
812282E8
8122DE85
8122AEC6
81227293
8122E5AD
81229EF1
8122ABDD
8122C070
8122D38E
81221C9D
8122E238
81229154
812DB6E7
812DB27C
812D0B87
812DD9FD
812D7EF9
812DB807
812D618D
812D0BC2
812D0202
812D788D
812D3FDF
812D030C
812D3737
812D4F7F
812D8E20
812DB517
812DFF7F
812DE0B9
812DBDBF
812D304B
812D1088
812D2814
812D808E
812D6BC3
812DF5B5
812DB7E5
812D3B45
812D6B4C
812D2AC0
812DE438
812DF387
812D6B57
812D2A73
812D412A
812D308B
812D2FEE
8134B47B
8134FE39
8134BE41
8134E4F3
813474B9
8134DDB7
813471BD
81340BE7
8134E23B
813438AD
81347BDF
81340B5C
8134FD37
8134EFFE
8134CE28
8134B587
8134FF7E
8134F03A
8134A5AA
81341243
81340EC8
81347805
81349EAC
81349FC1
81347191
813490A1
81342B4D
81340B4C
81340AC2
8134C038
8134B387
81346B5D
8134CBE7
8134414A
813402A9
81342FCE
81291BC5
81292E4C
8129F8BB
8129743E
8129767C
81299430
81295BDE
81299BC5
8129CE5C
8129E43A
8129410C
81290088
8129E832
8129C737
8129CC3A
8129B4B3
812957C0
812911C5
81294420
8129C4B1
81291480
81293185
81295BA6
81293BD7
81298B49
81291F85
812937CD
81293BCF
8129AF5F
8129447E
81298A52
8129C117
8129F1D5
8129C37E
81296638
81299400
811DE426
811D56F8
811DB97D
811D1E22
811D1408
811D1481
811D3C09
811D531E
811D2BCD
811DA77E
811D94E9
811D7895
811D15D3
811DECAE
811D5BD5
811D4BCA
811DBFA3
811DAFEF
811D5BD5
811D7FBF
811DFF7F
811DAF7F
811D7615
811D0A4E
811D6403
811D237F
811D6347
811D4B4E
811D4000
811D902A
811D0D77
811D5DF0
811DD4C2
811DC43A
811D8010
811D9080
810E07CD
810EF383
810E03E5
810E8248
810E8008
810E9083
810EA442
810EC420
810E8432
810E1401
810E0402
810EC000
810EADEB
810E0000
810E00C1
810E8F40
810E9440
810EC40A
810EA7C4
810ED252
810E4137
810E0F49
810E0AC0
810E0F64
810E487A
810E088C
810E16BB
810E2504
810E924E
810ED5BA
810E1A8B
810E8AEF
810EC001
810E825F
810E88E8
810EA9C4
811E5000
811E8081
811E6290
811E09D8
811E1291
811E0880
811E5081
811E6BDD
811EEED2
811E7C2B
811E7A37
811E912D
811E3A74
811E6BDF
811E8E22
811EF5BF
811E3FFD
811E80A0
811EAC19
811E72D3
811E8420
811E7001
811E1BCD
811E6BC5
811EBB45
811E4C72
811EC0CC
811EF253
811E1913
811EC13C
811EBA8D
811EAAA5
811EB433
811E3358
811E2CF2
811ED428
81185D00
8118198F
81180E49
81188C42
8118F597
8118FE71
811808C2
8118E977
8118CA34
8118952C
8118B6C5
8118A67C
8118EF7F
811834FD
81180BCD
81180B40
81189081
81183B4B
8118B7EF
81187BC5
8118635F
81180B4C
81180043
8118FE70
81181B7F
81184156
81188365
81182F8D
81181BDD
8118EF3A
81184B05
8118E098
81183519
81181FB4
81181D73
8118BE7C
8107F423
81079898
81070429
81071281
8107A946
81077039
81078800
8107C1B7
8107CE3A
81078420
8107D439
8107F6BA
81071989
81079005
810701CD
8107AFE3
8107AE42
81079400
8107A375
81074252
81075115
81075BCD
81072BCD
8107EEC1
81070812
8107B488
8107B233
81077247
81075B5D
81076BFE
8107F04F
81077FBD
8107A8C4
8107973E
81071438
810781C4
8119BD25
81199C0A
8119FD81
81193FC0
8119B5CB
8119F63A
81194041
8119A026
8119EB77
8119E77D
8119FF5E
81198E3C
81197FCD
8119E8B2
811961FF
8119C3FF
8119C4E1
81197E31
81198BE5
81191FCC
8119E45A
8119D438
8119950B
811950A0
8119BD3F
81190340
8119AC6A
8119F4B8
8119D811
8119C210
8119343B
811917D6
811928E8
8119B292
81199402
811905A0
812FF43E
812FD4B1
812F158B
812F3FCF
812FFFE6
812F0343
812FA4BB
812F1621
812FEF45
812FFDBF
812FB75E
812F841C
812FF557
812FF937
812F33CD
812F6F5A
812F803A
812FD420
812F09C0
812FED36
812FC73A
812F8C68
812F96A1
812F1DC3
812F3FFB
812F8CEA
812FCCB8
812F0CB1
812F7347
812F3B8F
812F55A5
812F2BFC
812F0AC3
812F9640
812F9721
812F593F
8127F43A
812754B0
8127CDD3
8127BB2E
81271BCC
81278340
8127B4A0
81277D97
81278BCF
81276A7B
8127749F
8127318F
81277C00
812769F7
8127787F
8127E67A
8127F4A8
81270400
812760A2
8127D43A
8127C030
81279AC9
81276F82
81273FC3
81272748
81278C82
81270E31
81270242
8127C37D
8127ED35
81279BF5
81278AD8
81278BC5
8127AAC9
8127CFCF
8127B43A
81325003
81326995
8132DBE7
81323BFD
81323E6A
81321000
8132FEF7
8132FF3E
8132113D
8132B3CF
8132C672
81325085
8132AF7F
8132843A
81321095
81324B4D
8132820C
8132A500
8132F7A7
8132BEC8
81327B53
81328F7A
8132C4F2
8132ECA3
8132B43B
813273FF
8132537F
813267FE
81321FC7
81323A87
8132640D
8132BFF6
81327510
8132B317
8132D3A7
8132EE6D
81265AC2
812647FA
8126FEF2
8126F4BF
81265F74
8126BBCE
81260B9C
812639F9
81263BDB
8126CA52
812621A1
81260146
812643C4
8126EF77
8126F43E
8126509C
812643CC
812600C4
81265B95
81262EEA
8126A4A2
8126F430
81265435
8126A7BD
8126B433
8126A432
8126CCB8
8126B423
812694A1
81261043
812672B3
8126CAF0
81261E8F
8126AAC7
81266225
81268391
0109ECD5
0109CBF0
0109C200
0109E410
0109F490
01099080
0109E030
010950A0
0109C040
0109C000
01094480
0109D005
0109E4AA
01097487
0109628D
01096BC4
01094EC0
0109C4A0
0109C420
0109F091
0109E157
01098BDD
0109BBDD
0109CF6A
0109E422
0109D41A
01094426
01096013
01097C0D
01097BFB
01096420
01099CC0
01098081
01094013
0109741D
01093BFF
811BABFF
811B12C8
811BA3CE
811B4000
811B85C7
811BFEFC
811BFF7C
811B1003
811BFF79
811B176C
811BA622
811BED39
811B5480
811BE8A2
811BFC32
811BDD34
811BBDE9
811BADF3
811BB1F1
811B180D
811B1E88
811B3885
811B27CF
811B2B47
811B5A7B
811B7B39
811B2747
811B0241
811BF02B
811BDFFB
811B2C20
811B55BB
811B9B4A
811BAC9D
811B6CB2
811B8300
8121A53F
8121FC7E
812135AD
812100A9
81212C33
8121FD7E
8121A67A
81214000
81217095
8121BBDD
8121BF6D
8121EF78
81210080
8121CCE0
81217BC5
81212B4D
8121B9B7
8121EFFF
81211930
81213FDD
81217FFF
8121CF7E
8121F000
8121E43E
8121AF7E
81214150
812119BA
81218C24
8121FCF1
81211887
81214422
8121B488
81212885
8121E089
8121EBD5
8121EFFF
811184B4
811154A1
81113967
81112B6F
81113B7C
81110B44
81113083
81117D17
81113B5F
81113F4E
81111B2A
8111955A
8111EC32
81117485
81110BDD
81112BD9
81112A4E
81118C20
8111FC2A
81115B97
81117B7F
81115B5E
81112FFD
81116B11
8111AC22
811174B2
8111E410
8111F849
8111D827
81114024
8111EC20
81115510
81115410
81118490
8111C400
81111018
811B4384
811BEA42
811B8725
811B20FB
811BC476
811B9438
811B5055
811B03DE
811BFBDE
811BACFA
811BDFF8
811B1681
811B0000
811BF9B7
811B43FF
811B8BF1
811B5FC0
811B7DBD
811BE1B2
811BCE7E
811B551D
811BF7FA
811B101F
811B07C5
811B1385
811BABC1
811BA763
811B1401
811B0000
811BC030
811B011D
811BF1CE
811B4BDC
811B4F72
811BC428
811B9408
811F0341
811F16E0
811F4030
811FD492
811FD8B3
811F7FAE
811F63EC
811F2BDB
811FF412
811F7284
811F13C9
811FAA4E
811F7AE1
811FEB7A
811FC43A
811FF430
811F719D
811F3BDE
811FE8FA
811F8408
811F8480
811F1080
811F1083
811F9374
811F9BBF
811F88A1
811F2984
811F12C7
811FEAF8
811FC4B2
811FBA49
811F92E1
811FC241
811F0A09
811F5F8C
811FFABC
812DA273
812D567A
812DD650
812DF652
812DFE1B
812DBF6E
812DEF7E
812D7432
812D23E5
812D28C7
812D40AC
812D09C5
812D7FC4
812D7FE1
812D9F80
812D248B
812D2039
812DD1FF
812D5A4B
812D6355
812DB3EA
812D2B77
812D6AC7
812D2BC5
812D9BEB
812DA4A2
812D1881
812D234C
812D00E0
812D39DF
812DFFCF
812DE3C4
812D4BC7
812D61AE
812D3144
812D7A8E
812DCD24
812D1B8F
812D08C9
812D81E8
812DC7CA
812D5430
812DFCE1
812D5505
812D23CA
812DAEC6
812DDFEB
812DFEF9
812DB74F
812D84AA
812D1BC5
812D6B47
812DBE8F
812DEFDF
812D8BF7
812D6BBF
812D7BDF
812D4F7B
812D734D
812D3BCF
812D411D
812DA11C
812D5BDD
812D2BCC
812D53C6
812D4BBE
812D4476
812D349A
812D356E
812DDFED
812DFFFC
812D9CA1
81372BFF
81372F67
8137F3FF
813765B3
8137D752
81377EA4
8137B77C
81378008
81371083
81373FEF
81372BC4
81370B44
81374AF6
8137EFFA
8137FF30
8137591D
813743DD
81370AE6
81375BD4
8137BDAF
8137AEEA
8137B432
81375534
81375394
81375A50
81377B1D
81379BEC
8137AC26
8137BCAB
81371803
81376022
813754C0
813747BC
8137EBE6
8137E42F
81377ADB
811EA072
811E562D
811E8A59
811ED596
811E7631
811EFFBE
811EEF2F
811E5C44
811EC1A8
811E9262
811E37E5
811E2BCF
811E7FCD
811EEFFA
811ECC36
811ED4B4
811E7B7F
811E6B7E
811E1B54
811E1FCF
811E2EC8
811E3886
811E893B
811EBE4D
811EE7D3
811EA272
811E21C1
811E000D
811E4D80
811E99A2
811E7F8A
811E16AE
811E5397
811EECA0
811E7E3A
811ED6E5
811B57CD
811B4D40
811BF1BE
811B000D
811B00C0
811BE02A
811B4848
811B8400
811B9E28
811BD43B
811BC050
811BC4BA
811BAF6D
811BA022
811B5098
811B03C7
811B05C8
811B1401
811BE3F1
811BECBA
811BD436
811BD4BD
811B271E
811B529D
811B5A10
811B5D9D
811BDFFC
811B3D87
811BE63A
811B16C7
811B0DA8
811B3D15
811B73D5
811B2B67
811B9C2A
811B9101
811FE27B
811FF6FA
811FD4B1
811F6458
811F2022
811F1805
811FB53E
811F1FED
811F2BC5
811F6284
811F4018
811F00D0
811F8400
811F16C1
811F8E4C
811F0402
811F6012
811F498F
811F2081
811F4010
811F018D
811F2BCD
811F08C0
811FBD86
811F5BDD
811F0409
811F1343
811F2B4E
811F00C0
811F8468
811FB78F
811FE2C2
811FE263
811F296B
811F33F5
811F2B06
811FEDB0
811F0481
811FA185
811F0BC5
811FA3CF
811F6B53
811FE4A3
811F4110
811FD117
811F1FCD
811FBF57
811FBF7F
811F1FC5
811F8468
811F1185
811F6B47
811F8A6E
811FC430
811F1BFE
811F0B44
811F6BD7
811FCE7A
811F9619
811F84E2
811F5195
811FEDF7
811F5E3E
811FED0C
811F7253
811F576F
811F54AA
811F7F3D
811F14EB
811F76CF
811FB0BC
811F5AC1
812FFBED
812F0B4E
812F2260
812F80C0
812F8081
812FD4B0
812FDB5D
812F03DF
812F4A0C
812F42DF
812F01CC
812FC080
812F8950
812FE53A
812FDC3A
812FF533
812F71FF
812F0358
812FA9EC
812F3BC7
812F0022
812F3D81
812FBBD6
812FAEFB
812F5099
812F1BCD
812F0BCD
812F0BC5
812FA1FC
812FBFFB
812F50D9
812F23F7
812F6B7D
812F4FEC
812F47AC
812F14B3
810AD583
810ABAD2
810A8640
810A02E8
810A2AD1
810A30DB
810A4810
810AC57F
810A040C
810A0001
810AC430
810AF438
810A8E6B
810A1001
810A00C1
810A8EC3
810ABC40
810AB410
810AA4A8
810A4250
810A5115
810A4BCD
810A2BC0
810A2F4B
810AE5A7
810ADCC4
810A6013
810A6144
810A0344
810A43F8
810A9BC5
810AAB2F
810AA8D3
810AB63B
810A3A2A
810A81C4
81152AD2
81156A3E
8115EF7E
8115E03A
8115743B
8115D4B6
8115AA68
8115B432
811534B3
8115FC3B
8115E432
8115D000
811526EE
81155AC5
81152BC7
81152BFA
81150AF8
8115D000
8115FFF7
8115FFDD
81157A5F
8115FB7E
8115E438
81155032
8115A47A
8115F53E
8115E938
8115FD38
8115DDB3
811577B9
81158C6E
8115343A
8115BC89
8115362A
81158CAA
81159420
8120B42B
81209400
81201080
81200093
8120EEBA
81209DA7
8120438C
81200AC0
81201084
8120308D
81206B97
8120623A
812083D6
8120C6F2
8120CE20
81203506
8120FF5A
8120D4AD
8120BEBD
812010CA
812013C8
81202986
81200AC0
81201000
8120F537
812033FF
81201B45
8120234E
812001C0
812088F2
8120F38F
8120EB47
81202CFB
812030EB
812071A5
81207FEE
811E9820
811EF43B
811E5C32
811ED4B3
811E7FFD
811EBBCF
811E0B89
811E8AC2
811E50B0
811EBDE2
811E32D5
811E03C5
811E43DF
811ECE3A
811ED430
811E1185
811E4AD6
811EC03C
811E0954
811E8EC9
811E2EEA
811EB034
811EA53B
811EF438
811EE0B0
811EAA72
811E75BE
811EF0B9
811E6DA9
811E35C7
811E741F
811EABC4
811E7BEE
811EEAC7
811E7FF7
811E7BD7
811EA77F
811EFE3E
811E1504
811E198D
811E3C6B
811EEF7E
811EAD7A
811E4422
811E5081
811E5DC5
811EBFEF
811EEBE8
811ED489
811E0CC0
811E33C7
811E0B49
811E78E3
811EFFDF
811E3417
811E1BCD
811E6BDF
811EEF7E
811ED0E8
811EE43A
811EAE12
811E63C6
811E2191
811E8D2C
811EB481
811E1B85
811E4432
811EB598
811E6F7D
811EC370
811ED007
811EDAD5
81254B5E
8125AAEC
8125BF7C
8125E977
8125F57E
8125D438
81259E7F
8125F6FF
81253B49
8125AA78
81258DCA
81250A80
81258400
81255B45
812573CD
81252F49
8125DF56
8125CFFC
8125E0B2
8125DD3F
81255BD5
81256FCB
81253B4C
81252707
81250BC0
8125A402
812572B2
8125493B
8125F73B
8125FF73
812583D6
8125A248
81253FEF
81259FFF
81251BCB
8125BFD4
81285BCD
8128A379
81284BD3
8128E9D5
8128EFFF
81286F50
8128ABF6
81282FFD
81282E40
81285102
81283B76
81288428
8128534C
8128E3D3
8128C43A
8128D034
8128519C
812801C4
8128F7FF
8128E432
81289420
8128D032
81281051
8128278F
81281B49
8128A43A
81288CE0
812876C1
81288022
81280A7B
8128AAF0
8128C400
81281797
812881C7
81286AB1
81282FD4
811FAFFE
811FFE73
811FBF3F
811FF837
811FF9BF
811F7BFF
811F435C
811F2221
811F2B85
811F09C4
811F24C3
811F750C
811FE8B2
811FD410
811F7BDF
811F4B5A
811FC244
811FEEBA
811FA43A
811F958C
811F7F57
811F075E
811F8C22
811FC438
811FAE28
811F7317
811F6DB5
811FC03F
811F8EBD
811FBFC4
811FA8F0
811F6532
811F1F92
811F2808
811FD0A1
811F2FF1
80227208
8022F29D
8022AA04
80224CAD
